, 3057
. 1940
the 1409
in 825
of 716
a 697
und 690
and 636
der 524
die 513
to 498
@-@ 440
is 333
&quot; 297
; 288
den 255
b 246
for 236
that 233
you 230
ist 229
( 213
zu 211
von 210
) 209
be 205
es 203
auf 201
das 188
Sie 186
mit 179
are 171
as 169
on 167
werden 165
dem 159
an 158
des 158
sie 156
it 149
I 145
für 145
with 145
&#124; 141
this 137
nicht 131
c 127
er 125
... 123
: 123
they 122
ein 121
from 121
by 118
or 118
shall 118
not 116
And 115
- 110
! 107
ich 107
eine 106
oder 106
im 105
Und 102
wird 101
ICEcat 100
all 100
which 100
sind 99
your 99
can 97
� 95
have 92
sich 92
so 92
was 90
unto 89
auch 86
he 84
The 82
will 82
their 81
e@@ 80
E 79
daß 77
Die 76
als 76
wie 74
e 70
können 68
P@@ 67
my 67
This 66
ihr 66
/ 65
3 65
d 65
de 65
hat 65
1 64
um 62
2 61
am 61
we 61
S@@ 60
&apos;s 59
at 59
etc 59
WordPress 58
his 58
al 57
er@@ 57
nach 57
o 57
sein 57
über 57
Open 56
aus 55
es@@ 55
? 54
God 53
8 52
Lord 52
denn 52
einen 52
haben 52
W@@ 51
sites 51
K@@ 50
dieses 50
ge@@ 50
has 50
if 50
wir 50
ig@@ 49
may 49
them 49
B@@ 48
Cadiz 48
diese 48
do 48
eiten 48
s 48
durch 47
ecommerce 47
einem 47
even 47
re@@ 47
ver@@ 47
68@@ 46
ASPs 46
Das 46
also 46
de@@ 46
euch 46
man 46
upon 46
ye 46
kann 45
gibt 44
more 44
one 44
our 44
s@@ 44
were 44
In 43
PHP 43
efore 43
land 43
war 43
einer 42
j@@ 42
wenn 42
G@@ 41
QuarkXPress 41
damit 41
ed 41
free 41
19 40
5 40
b@@ 40
bei 40
but 40
ihre 40
things 40
unter 40
using 40
work 40
4 39
du 39
her@@ 39
ing 39
noch 39
there 39
DL@@ 38
NA 38
Up@@ 38
him 38
t@@ 38
time 38
2009 37
Star 37
had 37
ja 37
zur 37
Diese 36
M 36
ch@@ 36
data 36
f 36
into 36
ten 36
vom 36
® 36
3@@ 35
Land 35
O@@ 35
many 35
other 35
out 35
these 35
vor 35
who 35
about 34
been 34
in@@ 34
no 34
use 34
Lufthansa 33
Zeit 33
aber 33
an@@ 33
be@@ 33
dat@@ 33
y 33
Form@@ 32
Menschen 32
Version 32
end 32
habe 32
how 32
people 32
seit 32
th@@ 32
thou 32
welche 32
11 31
20 31
Gottes 31
SD 31
Spain 31
c@@ 31
gegeben 31
l@@ 31
should 31
6@@ 30
M@@ 30
al@@ 30
alle 30
da 30
dies 30
ein@@ 30
ers 30
men 30
must 30
since 30
sollen 30
ti@@ 30
zum 30
15 29
Cala 29
For 29
If 29
It 29
based 29
dass 29
ent 29
new 29
sor@@ 29
st 29
systems 29
t 29
up 29
2.@@ 28
ada 28
eines 28
first 28
information 28
its 28
nur 28
te 28
well 28
would 28
12 27
6 27
7 27
Herrn 27
Rat@@ 27
Ver@@ 27
d@@ 27
h 27
ihm 27
ihnen 27
n@@ 27
Daten@@ 26
Herr 26
Hotels 26
Last 26
Minute 26
März 26
Premium 26
You 26
according 26
en 26
files 26
good 26
now 26
oren 26
some 26
used 26
yea 26
Comm@@ 25
F@@ 25
Wenn 25
file 25
great 25
located 25
m 25
purchase 25
seine 25
software 25
ss@@ 25
systeme 25
täglich 25
very 25
w@@ 25
10 24
29 24
Commerce 24
Der 24
Distribut@@ 24
Einkaufs@@ 24
Er@@ 24
Es 24
Ihre 24
Windows 24
Z@@ 24
ation 24
ator 24
basiert 24
blatt 24
darum 24
dieser 24
eth 24
gemäß 24
get 24
let 24
much 24
21. 23
Geist 23
Media 23
Py@@ 23
R@@ 23
Shops 23
Statistik 23
Vergleich@@ 23
because 23
called 23
city 23
comparison 23
dann 23
denen 23
distributors 23
downloading 23
erc@@ 23
esh@@ 23
every 23
here 23
herunterladen 23
ings 23
la 23
me 23
mehr 23
n 23
old 23
ops 23
order 23
sheet 23
siehe 23
stati@@ 23
stic 23
teilnehmenden 23
when 23
-@@ 22
21 22
30 22
Darum 22
H@@ 22
ab@@ 22
after 22
anderen 22
come 22
el@@ 22
given 22
i 22
image 22
k 22
kommen 22
meine 22
sehr 22
such 22
thy 22
tions 22
ung 22
13 21
2005 21
2008 21
22 21
2@@ 21
D@@ 21
Ferienwohnung 21
Gott 21
Informationen 21
Sch@@ 21
alt 21
any 21
comm@@ 21
m@@ 21
might 21
or@@ 21
p@@ 21
r 21
uns 21
us 21
version 21
wurde 21
y@@ 21
&apos;t 20
2006 20
24 20
Adam 20
E@@ 20
Ferienwohnungen 20
Geb@@ 20
Macht 20
a@@ 20
and@@ 20
before 20
behold 20
bis 20
bl@@ 20
cht 20
el 20
geben 20
gen 20
hier 20
know 20
ma@@ 20
mir 20
most 20
nun 20
power 20
selbst 20
sh@@ 20
soll 20
take 20
ts 20
viele 20
world 20
14 19
9 19
Dateien 19
De@@ 19
Hotel 19
Lizenz@@ 19
alles 19
content 19
finden 19
g 19
l 19
lo@@ 19
p 19
same 19
users 19
v@@ 19
wurden 19
zu@@ 19
Ein@@ 18
Lot@@ 18
Si@@ 18
Software 18
There 18
around 18
as@@ 18
children 18
einige 18
en@@ 18
g@@ 18
h@@ 18
hath 18
ihn 18
keine 18
like 18
made 18
müssen 18
see 18
set 18
un@@ 18
years 18
z 18
z@@ 18
&amp; 17
27 17
28 17
AKVIS 17
But 17
C@@ 17
Datei 17
Illu@@ 17
Mel@@ 17
NI 17
PS@@ 17
Welt 17
able 17
allen 17
among 17
available 17
dar 17
earth 17
einfach 17
holiday 17
k@@ 17
license 17
marken 17
per@@ 17
pri@@ 17
rep@@ 17
sten 17
ternal 17
tter 17
um@@ 17
way 17
werde 17
™ 17
23 16
Ab@@ 16
Re@@ 16
Smith 16
Was 16
am@@ 16
ant 16
aus@@ 16
being 16
der@@ 16
dney 16
don 16
ens 16
fe 16
included 16
liegt 16
mein 16
ments 16
only 16
schon 16
son 16
sp@@ 16
str@@ 16
te@@ 16
waters 16
what 16
wher@@ 16
16 15
18@@ 15
26 15
A 15
A@@ 15
Jerusalem 15
L@@ 15
Nutzern 15
Son 15
X@@ 15
bi@@ 15
bietet 15
bin 15
day 15
different 15
dir 15
ent@@ 15
ewi@@ 15
f@@ 15
gehen 15
hatten 15
having 15
i@@ 15
ihrer 15
immer@@ 15
ins 15
law 15
make 15
ness 15
neue 15
nämlich 15
open 15
page 15
pre@@ 15
ra@@ 15
rest 15
sei 15
seiner 15
sondern 15
those 15
tun 15
waren 15
zwei 15
.@@ 14
18 14
2007 14
25 14
31 14
Al@@ 14
Angebote 14
Apartments 14
Content 14
Erde 14
Go@@ 14
Gö@@ 14
Ich 14
Joseph 14
Kne@@ 14
Leben 14
Off@@ 14
Only 14
Pri@@ 14
Programm 14
Se@@ 14
Strand 14
aff@@ 14
all@@ 14
andere 14
brands 14
days 14
distribution 14
find 14
forever 14
hei@@ 14
just 14
kein 14
lassen 14
life 14
me@@ 14
meiner 14
ons 14
par@@ 14
ren@@ 14
rent 14
ri@@ 14
sowie 14
tery 14
through 14
two 14
u@@ 14
under 14
vertreten 14
without 14
works 14
ä@@ 14
über@@ 14
.. 13
Barcelona 13
Computer 13
Daten 13
El 13
En@@ 13
Ende 13
Heiligen 13
Holy 13
Nur 13
P 13
PC 13
Spon@@ 13
T@@ 13
Verteilung 13
Volk 13
Werk 13
What 13
_ 13
befindet 13
choose 13
computer 13
det 13
di@@ 13
ds 13
est 13
ge 13
genutzt 13
immer 13
ke 13
kostenfreien 13
le@@ 13
machen 13
nor 13
ohne 13
over 13
part 13
receive 13
right 13
said 13
save 13
say 13
sch@@ 13
si@@ 13
spon@@ 13
support 13
than 13
then 13
tre@@ 13
ungen 13
ver 13
&#91; 12
&apos; 12
17 12
19@@ 12
Aber 12
Costa 12
Ferien@@ 12
Flash 12
IC@@ 12
Ihnen 12
Ihr 12
Ihrer 12
Import 12
J@@ 12
Kin@@ 12
Medien@@ 12
Personen 12
Press 12
Prop@@ 12
Server 12
Suite 12
alog@@ 12
away 12
berufen 12
bring 12
could 12
created 12
doch 12
end@@ 12
enden 12
ert 12
ery 12
faith 12
full 12
ges 12
ges@@ 12
go 12
gut 12
he@@ 12
known 12
last 12
le 12
lugins 12
name 12
ob 12
ret@@ 12
schen 12
terie 12
tet 12
value 12
verkün@@ 12
viel 12
weiter 12
ßt 12
100 11
32 11
7@@ 11
Beh@@ 11
Design 11
European 11
Gene@@ 11
I@@ 11
In@@ 11
Microsoft 11
No@@ 11
Plugin 11
Rech@@ 11
S 11
Spirit 11
Stadt 11
Wasser@@ 11
We 11
Weise 11
Y@@ 11
ance 11
area 11
ate 11
außer 11
beach 11
beginning 11
both 11
concerning 11
deine 11
dessen 11
direkt 11
eg@@ 11
few 11
fl@@ 11
getan 11
gi@@ 11
hast 11
help 11
het 11
ini@@ 11
ion 11
it@@ 11
klicken 11
kommt 11
layers 11
lichkeit 11
links 11
look 11
lt 11
ol@@ 11
photo 11
place 11
righ@@ 11
sehen 11
ser@@ 11
serv@@ 11
soll@@ 11
speak 11
ste 11
system 11
tieren 11
tsch@@ 11
unter@@ 11
want 11
wei@@ 11
while 11
wieder@@ 11
worden 11
wäre 11
&#93; 10
4@@ 10
8.@@ 10
AC@@ 10
As 10
Boeing 10
Co@@ 10
DNA 10
Dieses 10
Eden 10
Europa 10
Free 10
Gil@@ 10
Holiday 10
Hostels 10
Hu@@ 10
Im 10
JP@@ 10
John 10
Leh@@ 10
Menschen@@ 10
Mit 10
My@@ 10
Namen 10
Ordnung 10
Photoshop 10
Player 10
Siehe 10
Stimme 10
System 10
Tag 10
Teil 10
To 10
Updates 10
Vater 10
Y 10
account 10
ad@@ 10
again 10
ar@@ 10
bar@@ 10
best 10
bist 10
bringen 10
ca 10
co@@ 10
coming 10
dazu 10
done 10
down 10
easy 10
ed@@ 10
eigenen 10
enheit 10
ersten 10
esh 10
essed 10
essi@@ 10
ester 10
et 10
eu@@ 10
face 10
family 10
features 10
forth 10
found 10
ganz 10
gegen 10
ger 10
go@@ 10
hatte 10
her 10
high 10
is@@ 10
legen 10
letzten 10
meines 10
mis@@ 10
mü@@ 10
need 10
needs 10
net 10
off 10
ood 10
ors 10
ot@@ 10
ou@@ 10
per 10
personal 10
reisen 10
ro@@ 10
sa@@ 10
sons 10
spirit 10
st@@ 10
ted 10
ter 10
th 10
town 10
tra@@ 10
up@@ 10
updates 10
upload 10
verwendet 10
w 10
weil 10
werdet 10
whom 10
words 10
während 10
öhne 10
25@@ 9
35 9
Adobe 9
All 9
Alle 9
Alliance 9
An@@ 9
Andalu@@ 9
Ant@@ 9
Aus@@ 9
Auswahl 9
Be@@ 9
Beispiel 9
Christ 9
Christop@@ 9
Creative 9
Du 9
Eine 9
Fotos 9
Funktion 9
Gesetz 9
HTML 9
Heritage 9
Israel 9
Jahre 9
Ju@@ 9
Ken@@ 9
Kinder 9
Lin@@ 9
Lu@@ 9
Nachricht 9
Nephi 9
Now 9
Nun 9
Offen@@ 9
Online 9
PDF 9
Poker 9
Probleme 9
Prophe@@ 9
Santa 9
Tage 9
They 9
Wasser 9
Worte 9
Zahlen 9
ac@@ 9
ad 9
alten 9
ann 9
ans 9
ap@@ 9
apartment 9
art 9
ations 9
auf@@ 9
chen 9
cher 9
commercial 9
create 9
del 9
dem@@ 9
devices 9
dich 9
does 9
each 9
einge@@ 9
elle 9
em@@ 9
eren 9
erste 9
ester@@ 9
gel 9
gl@@ 9
hands 9
heart 9
heiligen 9
hi@@ 9
holy 9
host 9
hätten 9
häuser 9
ihren 9
im@@ 9
iz@@ 9
jedes 9
jetzt 9
journey 9
led 9
lei@@ 9
litz 9
los 9
lot@@ 9
meinem 9
meinen 9
ment 9
mine 9
ne@@ 9
offers 9
os 9
ousness 9
own 9
possible 9
program 9
put 9
qu@@ 9
r@@ 9
rene@@ 9
sed 9
seinen 9
sin 9
size 9
so@@ 9
ster 9
ter@@ 9
tes 9
tig 9
times 9
tool 9
tri@@ 9
unsere 9
ur@@ 9
values 9
vel@@ 9
verstehen 9
voice 9
weder 9
where 9
whole 9
wo 9
wählen 9
year 9
zusammen 9
zwischen 9
© 9
Ä@@ 9
á@@ 9
är@@ 9
&apos;ll 8
&apos;ve 8
* 8
000 8
80 8
Aar@@ 8
Alpha 8
Altstadt 8
Anfang 8
Ar@@ 8
Beta 8
Bug 8
CL@@ 8
Car@@ 8
Christus 8
DC 8
Denn 8
Dinge 8
Edition 8
Ein 8
El@@ 8
Euro@@ 8
Evange@@ 8
Familien 8
Ferienhaus 8
Fleisch 8
From 8
Funktionen 8
Glauben 8
Hand 8
Hinweis 8
Jahr 8
Johannes 8
Mallorca 8
Mar 8
O 8
One 8
PA@@ 8
PL 8
Ret@@ 8
Schlafzimmer 8
So 8
Software@@ 8
Sohn 8
Strafe 8
Tagen 8
Th@@ 8
Them@@ 8
Um@@ 8
Un@@ 8
V@@ 8
Webseite 8
Wei@@ 8
Werke 8
act 8
against 8
ak 8
allows 8
apartments 8
back 8
beim 8
ble 8
bleiben 8
board 8
bringt 8
ce 8
click 8
com@@ 8
common 8
ders 8
digen 8
dnis 8
eben@@ 8
els 8
empfangen 8
ene 8
ens@@ 8
enter 8
ets 8
evil 8
form 8
format 8
fro@@ 8
ga 8
gerweise 8
gesellschaft 8
give 8
gleichen 8
habt 8
ham 8
hand 8
hotel 8
ihrem 8
ihres 8
images 8
indem 8
inhabitants 8
jede 8
keep 8
kehren 8
la@@ 8
legal 8
len@@ 8
li@@ 8
licens@@ 8
ling 8
ll@@ 8
macht 8
man@@ 8
member 8
mer@@ 8
muß 8
names 8
neither 8
ni@@ 8
nnen 8
notwendi@@ 8
option 8
ort 8
ot 8
ote 8
pass 8
photos 8
play 8
posi@@ 8
province 8
punishment 8
py@@ 8
ren 8
sagt 8
seid 8
sen@@ 8
services 8
ses 8
sia 8
sicher 8
ski 8
spoken 8
stand 8
steht 8
ten@@ 8
terms 8
testen 8
text 8
ting 8
today 8
tree 8
type 8
understand 8
unserer 8
unterstützt 8
v 8
verschiedene 8
versions 8
verwenden 8
voll@@ 8
wegen 8
weiß 8
x 8
&apos;re 7
,000 7
1.@@ 7
200 7
2000 7
36 7
70 7
AP@@ 7
Bed@@ 7
Bei 7
Berlin 7
Bild 7
Bo@@ 7
Brüder 7
Bud@@ 7
Church 7
Digital 7
Ebenen 7
Erst@@ 7
Europe 7
Father 7
Frontera 7
Gal@@ 7
Golf 7
Gord@@ 7
Groß@@ 7
Handels@@ 7
Here 7
History 7
Host@@ 7
IM@@ 7
IT 7
Ihren 7
Kar@@ 7
Linux 7
Mac@@ 7
Maria 7
Menge 7
Mo@@ 7
My 7
N@@ 7
Nationen 7
Note 7
Pro@@ 7
Provinz 7
Rahmen 7
Seele 7
Shi@@ 7
Ski@@ 7
Sp@@ 7
Strand@@ 7
Versionen 7
Voll@@ 7
W 7
Wert 7
Werte 7
Wir 7
X 7
Zimmer 7
ab 7
ach 7
age 7
ah 7
airline 7
allow 7
alone 7
asts 7
bel@@ 7
ber 7
between 7
bezug 7
book 7
bre@@ 7
brought 7
bug 7
can@@ 7
case 7
cement 7
chten 7
chtet 7
column 7
compatible 7
creation 7
cur@@ 7
da@@ 7
database 7
details 7
dienen 7
diesem 7
dy@@ 7
eds 7
eins 7
ende 7
enthalten 7
enthält 7
erlaubt 7
ermöglicht 7
essen 7
except 7
families 7
fer@@ 7
fied 7
field 7
formed 7
frei 7
ful 7
function 7
gab 7
game 7
ganze 7
gebiete 7
genannt 7
gesprochen 7
glad 7
große 7
gs 7
gt 7
heute 7
ho@@ 7
hum@@ 7
ie@@ 7
ine 7
ischen 7
kehr 7
kleine 7
knowledge 7
leben@@ 7
leg@@ 7
len 7
level 7
lich 7
limited 7
listed 7
lium 7
living 7
lla 7
long 7
major 7
making 7
mark 7
matter 7
möchte 7
nations 7
nichts 7
none 7
o@@ 7
offer 7
online 7
ory 7
palette 7
popular 7
process 7
products 7
public 7
read 7
return 7
ron@@ 7
room 7
route 7
sage 7
san@@ 7
schaffen 7
sche 7
schöne 7
se 7
se@@ 7
server 7
service 7
share 7
simply 7
sowohl 7
stay 7
stre@@ 7
ta@@ 7
tag 7
thereof 7
tik 7
tragen 7
tung 7
u 7
ums 7
unserem 7
vor@@ 7
weitere 7
whether 7
wi@@ 7
wollen 7
word 7
written 7
yet 7
zugrunde 7
zurück@@ 7
ß 7
ß@@ 7
öse 7
0 6
07 6
300 6
34 6
37 6
38 6
39 6
A3@@ 6
Abra@@ 6
Als 6
Am 6
Apartment 6
Ara@@ 6
Arbeit 6
Art@@ 6
At@@ 6
Bilder 6
CC 6
Cas@@ 6
Com@@ 6
Con@@ 6
Conil 6
Dezember 6
Eben@@ 6
Erstellung 6
Ex@@ 6
Fall 6
Familie 6
Family 6
Fe@@ 6
Fel@@ 6
Fra@@ 6
Freiheit 6
Fu@@ 6
Gei@@ 6
Germany 6
Geräten 6
Gut 6
Herr@@ 6
Herz 6
Herzen 6
Hier 6
Hilfe 6
Ho@@ 6
Hoh@@ 6
Index 6
Jahren 6
Jesus 6
Komm@@ 6
Lage 6
Landes 6
Le@@ 6
Liste 6
Luft 6
Mc@@ 6
Nach@@ 6
Nam@@ 6
New 6
Oliver 6
Partner 6
Pensionen 6
Präsidentschaft 6
Q@@ 6
RO@@ 6
Ra@@ 6
Ruhe 6
Runde 6
Schle@@ 6
Schlüssel 6
Seite 6
Spiel 6
Teu@@ 6
Titan 6
Tre@@ 6
University 6
Unternehmen 6
Vernichtung 6
Verwendung 6
Wie 6
Wil@@ 6
William 6
Winter@@ 6
Wort 6
Zukunft 6
access 6
ade 6
aktuellen 6
ales 6
ange@@ 6
are@@ 6
assi@@ 6
at@@ 6
became 6
become 6
blog 6
born 6
came 6
cap@@ 6
che 6
choice 6
ck@@ 6
co 6
color 6
command 6
con@@ 6
connected 6
copyright 6
coun@@ 6
course 6
davon 6
death 6
definition 6
dern 6
dging 6
diesen 6
dings 6
ea 6
early 6
ebenso 6
effects 6
eh@@ 6
ei@@ 6
ek@@ 6
elements 6
ennung 6
erwäh@@ 6
example 6
fai@@ 6
fall 6
father 6
ff@@ 6
fo@@ 6
forward 6
four 6
ganzen 6
gave 6
gebracht 6
geführt 6
gene@@ 6
geschrieben 6
gewesen 6
großen 6
handelt 6
held 6
home 6
hren 6
hören 6
ics 6
includes 6
including 6
ined 6
ing@@ 6
inher@@ 6
ish 6
jo@@ 6
kinder 6
kinds 6
kt 6
kund@@ 6
könnt 6
lange 6
ler 6
lich@@ 6
lin@@ 6
line 6
lizen@@ 6
logo 6
looking 6
manner 6
meat 6
meet 6
meisten 6
mich 6
mitten 6
mo@@ 6
mouth 6
möglich 6
nehmen 6
network 6
neu@@ 6
news 6
nieder@@ 6
number 6
op@@ 6
ori@@ 6
our@@ 6
places 6
please 6
plugin 6
pro 6
product 6
proph@@ 6
rein 6
research 6
rights 6
scri@@ 6
section 6
seed 6
seinem 6
seines 6
sel@@ 6
site 6
sk@@ 6
small 6
sought 6
spielen 6
state 6
stellen 6
stes 6
suffer 6
tete 6
teten 6
themes 6
themselves 6
tige 6
tigen 6
to@@ 6
too 6
tor@@ 6
treten 6
ts@@ 6
unk@@ 6
unseren 6
uting 6
variety 6
ve 6
verfügt 6
vermieten 6
verschiedenen 6
video 6
voll 6
voller 6
walk 6
weise 6
weisen 6
wer 6
wick@@ 6
wieder 6
wil@@ 6
wissen 6
zi@@ 6
Ü@@ 6
ü@@ 6
ünde 6
% 5
0.@@ 5
00@@ 5
2003 5
8@@ 5
Airbus 5
Angebot 5
At 5
B 5
Bar@@ 5
Baum 5
Ben@@ 5
Bestellung 5
Bi@@ 5
Bitte 5
Bu@@ 5
Casino 5
Center 5
Charter 5
Chic@@ 5
Commons 5
Comp@@ 5
Da 5
December 5
Dor@@ 5
Einwohner 5
Elemente 5
Entertainment 5
Entwickler 5
Erkenntnis 5
Features 5
First 5
For@@ 5
Frankfurt 5
Frau 5
Freude 5
Fru@@ 5
G 5
Garten 5
Gemeinde 5
Glück@@ 5
Grund@@ 5
HC 5
Haupt@@ 5
He 5
Himmel 5
Hou@@ 5
IF@@ 5
II 5
Inhalte 5
Ja 5
L 5
La@@ 5
Located 5
Malaga 5
Man 5
Mat@@ 5
Medi@@ 5
Mehr 5
Mensch 5
Mund 5
Nachdem 5
Nutzung 5
On 5
Op@@ 5
PS 5
Palette 5
Par@@ 5
Patent@@ 5
Performance 5
Planet 5
Plus 5
Po@@ 5
Presidency 5
Puerto 5
Recht@@ 5
Rechts@@ 5
Release 5
Roman@@ 5
Rück@@ 5
Science 5
Share 5
Ste@@ 5
Studio 5
Su@@ 5
Tarifa 5
Tod 5
Tor@@ 5
URL 5
US 5
Universität 5
Update 5
Vi@@ 5
Wahrheit 5
Web 5
Weg 5
Wer 5
With 5
Word@@ 5
Zentrum 5
Zerst@@ 5
Zi@@ 5
Zu@@ 5
Zustand 5
above 5
add 5
ag@@ 5
air 5
aircraft 5
aktuelle 5
allem 5
alo@@ 5
already 5
always 5
angel@@ 5
anger 5
angezeigt 5
anna 5
another 5
appointed 5
ar 5
archi@@ 5
ark@@ 5
ash@@ 5
ast 5
ative 5
aufgrund 5
ausge@@ 5
aussch@@ 5
authority 5
authors 5
automatisch 5
baum 5
bedingungen 5
bekannt 5
ben 5
ben@@ 5
berat@@ 5
bereich 5
bestimmt 5
biggest 5
bitte 5
bleibt 5
buch@@ 5
bzw. 5
card 5
center 5
centre 5
chosen 5
chte 5
community 5
companies 5
complete 5
conditions 5
connection 5
ct 5
daher 5
dam@@ 5
darauf 5
declare 5
decre@@ 5
deiner 5
dena 5
deren 5
desc@@ 5
design 5
destruction 5
determine 5
dic@@ 5
did 5
diejenigen 5
dienst 5
dige 5
displayed 5
downloaded 5
drop 5
during 5
e.g. 5
ean 5
eingehen 5
either 5
em 5
ener 5
enjoy 5
enn@@ 5
entfernt 5
erhalten 5
ern@@ 5
erte 5
essing 5
ests 5
eter 5
etten 5
euren 5
ev@@ 5
event 5
ex@@ 5
exce@@ 5
existing 5
fallen 5
falls 5
fen 5
fi@@ 5
fleisch 5
flights 5
flucht 5
following 5
fruit 5
ft 5
ft@@ 5
garden 5
gebe 5
gebor@@ 5
gebung 5
gefallen 5
gefunden 5
gehei@@ 5
geht 5
gen@@ 5
genommen 5
gesch@@ 5
gespeichert 5
geworden 5
glauben 5
going 5
ground 5
größer 5
guten 5
handeln 5
hear 5
hearts 5
heav@@ 5
helps 5
hop 5
hätte 5
ie 5
ieren 5
important 5
include 5
international 5
internationalen 5
itself 5
jeden 5
jedoch 5
keys 5
kilometers 5
komplett 5
konnte 5
ks 5
kunde 5
kür@@ 5
lana 5
later 5
layer 5
layout 5
left 5
les 5
licher 5
liches 5
linie 5
link 5
list 5
little 5
live 5
lösung 5
main 5
mark@@ 5
mat@@ 5
means 5
media 5
mehrere 5
mer 5
mission 5
mit@@ 5
mption 5
neu 5
neuen 5
never 5
next 5
nice 5
numbers 5
office 5
ohn@@ 5
oldest 5
ordini@@ 5
original 5
orn 5
others 5
pa@@ 5
parents 5
patent 5
payment 5
pra@@ 5
prepared 5
project 5
promise 5
prop@@ 5
provide 5
pu@@ 5
purpose 5
purposes 5
questions 5
ray 5
re 5
read@@ 5
register 5
rem@@ 5
remained 5
res 5
resort 5
rooms 5
sagte 5
sal@@ 5
schla@@ 5
schönen 5
search 5
season 5
sevent@@ 5
similar 5
sofern 5
sogar 5
sollten 5
something 5
sonst 5
soon 5
soul 5
sti@@ 5
still 5
string 5
test 5
the@@ 5
therefore 5
thful 5
third 5
tionen 5
tivity 5
together 5
tools 5
top 5
tosh 5
truth 5
uel 5
unser 5
unten 5
user 5
ut 5
ven@@ 5
verb@@ 5
verse 5
versi@@ 5
vertrag 5
vier@@ 5
vil 5
wa@@ 5
wach@@ 5
wanted 5
we@@ 5
web 5
website 5
weg 5
wert 5
wes@@ 5
whose 5
wirst 5
wären 5
wür@@ 5
zei@@ 5
zer@@ 5
zung 5
ör@@ 5
€ 5
$ 4
&gt; 4
02 4
0@@ 4
1,@@ 4
100@@ 4
12@@ 4
14@@ 4
1994 4
1997 4
1@@ 4
2.0 4
20@@ 4
3.0 4
3.@@ 4
33 4
41 4
47 4
5.@@ 4
60 4
65 4
90@@ 4
= 4
AL 4
Ac@@ 4
Account 4
Ad@@ 4
Also 4
Anzahl 4
Apar@@ 4
Arch@@ 4
Art 4
Augen 4
Aviation 4
Awards 4
Bedingungen 4
Bilder@@ 4
Blo@@ 4
Buch 4
C 4
CSS 4
Camp@@ 4
Camping 4
China 4
Code 4
D 4
Dar@@ 4
Datei@@ 4
Department 4
Deutsche 4
Deutschen 4
Di@@ 4
Dis@@ 4
Do 4
Do@@ 4
Dre@@ 4
E. 4
Einige 4
Einzel@@ 4
Eli@@ 4
Eltern 4
Er 4
Erd@@ 4
Ereignis 4
Euro 4
Euros 4
F 4
FF@@ 4
FI 4
Fach@@ 4
Farb@@ 4
File 4
Files 4
Fin@@ 4
Flu@@ 4
Frage 4
Fragen 4
Fällen 4
Für@@ 4
Ge@@ 4
Gefan@@ 4
Gegend 4
Gen@@ 4
German 4
Gesetzes 4
Glaub@@ 4
Go 4
Google 4
Gri@@ 4
Gro@@ 4
Gutes 4
Handel@@ 4
Hi@@ 4
Hoch@@ 4
Hostel 4
Hyde 4
Händen 4
Höhe 4
IG@@ 4
IR@@ 4
Iber@@ 4
Inform@@ 4
Inhalt 4
Jetzt 4
John@@ 4
K 4
Kan@@ 4
Kanal 4
Klicken 4
Kommen 4
Kunden@@ 4
Lam@@ 4
Learning 4
Legal 4
Lehr@@ 4
Leute 4
Link 4
Links 4
Lizenz 4
Los 4
ME@@ 4
Mark@@ 4
Master@@ 4
May 4
Met@@ 4
Minuten 4
Miss@@ 4
Mitglied 4
National 4
Network 4
Netzwerk 4
Nevertheless 4
November 4
Objekte 4
Oder 4
Onlin@@ 4
Or@@ 4
PE 4
Pa@@ 4
Pay 4
Preis 4
Q 4
Qu@@ 4
Quark 4
Rap@@ 4
Rechte 4
SE 4
SO@@ 4
Sal@@ 4
San 4
Schi@@ 4
Seiten 4
Self 4
Servers 4
Sha@@ 4
Sierra 4
Sk@@ 4
Smart@@ 4
Some 4
Sony 4
Spanien 4
Sprache 4
Stamm@@ 4
Stau@@ 4
Stelle 4
Suche 4
Syn@@ 4
T 4
TR@@ 4
Teile 4
Therefore 4
Tiere 4
Top 4
Tri@@ 4
Twitter 4
Two 4
Um 4
Unter@@ 4
Urlaub 4
Verbindung 4
Verwand@@ 4
Vielzahl 4
Vis@@ 4
Von 4
W. 4
Wer@@ 4
Werkzeug 4
When 4
Willen 4
Win@@ 4
Wohn@@ 4
York 4
Young 4
Your 4
Zahlungs@@ 4
Zei@@ 4
Zeichen 4
Zusammen@@ 4
accommodation 4
acity 4
across 4
acted 4
ado 4
ah@@ 4
ai 4
ake 4
aller 4
alte 4
amazing 4
anderem 4
anderes 4
ands 4
arbeiten 4
areas 4
aren 4
array 4
ask 4
ata 4
aten 4
aters 4
ath 4
ati@@ 4
bald 4
bank 4
baren 4
bear 4
beiden 4
believe 4
bers 4
bert 4
besch@@ 4
besser 4
bestimmten 4
beta 4
bett 4
bevor 4
bit 4
bits 4
bo@@ 4
body 4
booking 4
bur@@ 4
call 4
cases 4
catering 4
cent@@ 4
ch 4
chains 4
charge 4
check 4
ching 4
ci@@ 4
ck 4
cle@@ 4
col@@ 4
colors 4
comp@@ 4
competition 4
consec@@ 4
contain 4
countries 4
cre@@ 4
creating 4
current 4
customer 4
cut 4
dar@@ 4
daran 4
darüber 4
deinem 4
delivers 4
deriv@@ 4
des@@ 4
designed 4
detailed 4
device 4
digital 4
diverse 4
dort 4
dust 4
egeln 4
eht 4
einfach@@ 4
einigen 4
einmal 4
einzu@@ 4
ell@@ 4
ena 4
ence 4
endless 4
ep@@ 4
equipped 4
ero 4
erscheint 4
erungs@@ 4
esen 4
especially 4
ess 4
et@@ 4
etwa 4
ever@@ 4
everything 4
extra 4
eyes 4
fahren 4
fast 4
findet 4
fine 4
fir@@ 4
fire 4
flat 4
fol@@ 4
for@@ 4
fully 4
fulness 4
functionality 4
funktionieren 4
future 4
führen 4
ga@@ 4
gar@@ 4
gebunden 4
gehabt 4
gelesen 4
geln 4
gem@@ 4
gemacht 4
genannten 4
genau 4
general 4
genschaft 4
gent@@ 4
ger@@ 4
geschnitten 4
gesetzt 4
gestal@@ 4
gew@@ 4
gezeigt 4
ght 4
gical 4
gkeit 4
glaubt 4
gon 4
got 4
graphics 4
group 4
gten 4
gäbe 4
ha@@ 4
hab@@ 4
han@@ 4
hau@@ 4
height 4
hell 4
hen 4
heraus@@ 4
himself 4
hin 4
hin@@ 4
hinter@@ 4
hinzufügen 4
hoch@@ 4
holds 4
homes 4
ice 4
ich@@ 4
icon 4
id@@ 4
ide 4
ide@@ 4
illi@@ 4
ily 4
impor@@ 4
import 4
individual 4
informationen 4
inische 4
inne 4
insbesondere 4
installed 4
installieren 4
installiert 4
inter@@ 4
interesting 4
ir@@ 4
iron 4
isch 4
ische 4
ise 4
ity 4
jedem 4
jeder 4
jederzeit 4
jet 4
jud@@ 4
keinen 4
ken 4
kin@@ 4
king 4
kur@@ 4
kömm@@ 4
künften 4
lagen 4
lan@@ 4
lasting 4
latest 4
lay@@ 4
lends 4
lesen 4
let@@ 4
liberty 4
licensing 4
liefert 4
ligkeit 4
liter@@ 4
ls 4
lö@@ 4
members 4
menu 4
met@@ 4
mi@@ 4
minutes 4
mobile 4
money 4
multiple 4
music 4
muss 4
myst@@ 4
möchten 4
möglichkeiten 4
nachdem 4
nahe 4
near 4
non 4
num@@ 4
nung 4
nutzen 4
often 4
oll@@ 4
olo@@ 4
options 4
orders 4
org 4
oriz@@ 4
oten 4
ou 4
ous@@ 4
pages 4
parties 4
parts 4
party 4
past@@ 4
patents 4
peace 4
permission 4
person 4
php 4
plan@@ 4
planning 4
played 4
pleased 4
point 4
post@@ 4
pp@@ 4
print 4
problems 4
processing 4
projects 4
promo@@ 4
ra 4
rahmen 4
rat@@ 4
ready 4
really 4
rechte 4
refer 4
released 4
rem 4
remember 4
request 4
round 4
run 4
running 4
s.@@ 4
safe 4
sah 4
sam 4
saved 4
saw 4
sc@@ 4
searching 4
second 4
secure 4
sem@@ 4
situated 4
sive 4
specified 4
sprach 4
später 4
sse 4
sses 4
sst 4
standards 4
stehenden 4
stored 4
streams 4
stä@@ 4
summer 4
sup@@ 4
supports 4
table 4
takes 4
tat@@ 4
taten 4
teach 4
teilen 4
teste 4
thing 4
thus 4
ties 4
till 4
till@@ 4
tive 4
tiz@@ 4
tlichen 4
took 4
trademarks 4
tum 4
turned 4
ty 4
und@@ 4
unterstützen 4
until 4
upgra@@ 4
ur 4
uses 4
various 4
verk@@ 4
verkehr 4
vern 4
veröffentlicht 4
ves 4
vielen 4
vier 4
view 4
vision 4
visit 4
vorbereitet 4
wahr@@ 4
war@@ 4
water 4
weisung 4
wenig 4
wenigen 4
wichtigsten 4
width 4
winter 4
wisdom 4
wohnen 4
won 4
writing 4
währ@@ 4
würde 4
x@@ 4
yer 4
ze 4
zeichnungen 4
zeigen 4
zeuge 4
zusammen@@ 4
zuvor 4
zweiten 4
ßen 4
ölle 4
übertragen 4
ünden 4
&apos;d 3
0.000 3
01 3
1.0 3
128 3
250 3
40 3
45 3
66 3
7.@@ 3
72 3
90 3
AGB 3
Absicht 3
Air 3
Aktien@@ 3
Although 3
Ambiente 3
Amt 3
An 3
Argent@@ 3
Arm 3
Auch 3
Ausserdem 3
Aut@@ 3
Bab@@ 3
Badezimmer 3
Basic 3
Basis@@ 3
Bay 3
Behandlung 3
Beide 3
Beitrag 3
Berufung 3
Bild@@ 3
Bildern 3
Book@@ 3
Boot 3
Breite 3
Browser 3
Buchung 3
Budapest 3
CS 3
Cal@@ 3
Camp 3
Catal@@ 3
Chair 3
Cham@@ 3
Christmas 3
Cli@@ 3
Copyright 3
DVD 3
Dat@@ 3
Dec@@ 3
Details 3
Dienste 3
Dies 3
Dieser 3
Download 3
Dra@@ 3
Druck@@ 3
Durch 3
During 3
EP@@ 3
ER@@ 3
Einstellungen 3
Element 3
Emp@@ 3
Erb@@ 3
Europas 3
Evalu@@ 3
Even 3
Executive 3
Falle 3
Falls 3
Familien@@ 3
Farbe 3
Feu@@ 3
Fi@@ 3
Firmen 3
Fleisch@@ 3
Format 3
Foto@@ 3
Fre@@ 3
GM@@ 3
Gebiet 3
Gegenwart 3
Gegner 3
Geheim@@ 3
General 3
Generation 3
Ger@@ 3
Gerät 3
Gesch@@ 3
Get 3
Gn@@ 3
Golf@@ 3
Grafiken 3
Größe 3
HTTP 3
Hei@@ 3
Heute 3
His 3
However 3
Hyper@@ 3
Hän@@ 3
IS@@ 3
Ibiza 3
Ihrem 3
Ihres 3
Institut 3
Intern@@ 3
Jahres 3
Januar 3
Kanäle 3
Kapital@@ 3
Kapitel 3
Kindern 3
Kombination 3
Kon@@ 3
Konto 3
Layout 3
Lebens 3
Lei@@ 3
Li@@ 3
Live 3
Lo@@ 3
London 3
Ländern 3
Lösung 3
Main 3
Many 3
March 3
Meas@@ 3
Medien 3
Meer 3
Menü 3
Mi@@ 3
Million 3
Min@@ 3
Mitglieder 3
Mitglieds@@ 3
More 3
Mul@@ 3
Möglichkeit 3
NICHT 3
NOT 3
Name 3
Nevada 3
Nutzen 3
Nä@@ 3
OR 3
OS 3
Objekt 3
Office 3
Optionen 3
Or 3
Ord@@ 3
Our 3
Oz@@ 3
PA 3
Patent 3
Patente 3
Pe@@ 3
Pension 3
Perl 3
Pf@@ 3
Play 3
Playa 3
Please 3
Pool 3
Post 3
Pra@@ 3
Pre@@ 3
Problem 3
Produkte 3
Programme 3
Projek@@ 3
Projekte 3
Rechn@@ 3
Recht 3
Rede@@ 3
Regierung 3
Region 3
Reihenfolge 3
Reise 3
Reservierung 3
Restaurant 3
Restaurants 3
Rolle 3
Rot@@ 3
S. 3
ST 3
Sache 3
Sand 3
Sat@@ 3
Schlag@@ 3
See 3
Seine 3
Sicherheits@@ 3
So@@ 3
Society 3
Sol 3
Sommer 3
South 3
Spalte 3
Spanish 3
St@@ 3
Standard 3
String 3
Studios 3
Such@@ 3
Systems 3
Sü@@ 3
Teilen 3
Tel@@ 3
These 3
Tier 3
UK 3
Umfang 3
Umgebung 3
United 3
Unterstützung 3
Ur@@ 3
Use 3
Using 3
Verbreitung 3
Veränderungen 3
Veröffentlichung 3
Video 3
Video@@ 3
Visi@@ 3
Vision 3
Vor@@ 3
Web@@ 3
Weihnach@@ 3
Well@@ 3
Werk@@ 3
Which 3
Woche 3
Work 3
Wunder@@ 3
Yacht 3
Zeichnungen 3
Zu 3
Zweck 3
abge@@ 3
acting 3
ads 3
affung 3
ago@@ 3
aling 3
allas 3
allein 3
allgemein@@ 3
alternative 3
amed 3
amen 3
amt 3
anderer 3
anders 3
anlagen 3
announce 3
annten 3
answer 3
anzeigen 3
approximately 3
ards 3
arm 3
arrival 3
ates 3
ats 3
atten 3
attered 3
attri@@ 3
audit 3
auen 3
aufen 3
aufge@@ 3
aush@@ 3
auswählen 3
auszu@@ 3
aut 3
author 3
automatically 3
background 3
ban@@ 3
bar 3
barkeit 3
bauen 3
beautiful 3
beginnt 3
behoben 3
beinhaltet 3
bekommen 3
bel 3
belie@@ 3
below 3
benutzen 3
ber@@ 3
bereit 3
bereits 3
beschlossen 3
beschäftigt 3
beste 3
bestimmte 3
betrifft 3
bew@@ 3
bewegt 3
big 3
bigger 3
bil@@ 3
bild 3
bildung 3
binary 3
binden 3
bis@@ 3
bit@@ 3
blan@@ 3
bound 3
box 3
bridge 3
bringing 3
brother 3
bu@@ 3
build 3
bund@@ 3
bung 3
bution 3
button 3
bür@@ 3
calling 3
cannot 3
capacity 3
casino 3
cause 3
cer 3
chair 3
changes 3
channel 3
channels 3
chen@@ 3
chtigkeit 3
cir@@ 3
cities 3
cken 3
client 3
close 3
computers 3
condition 3
conf@@ 3
configuration 3
considerable 3
containing 3
conver@@ 3
cos 3
creature 3
currently 3
cy 3
dafür 3
darf 3
date 3
dateien 3
dead 3
deemed 3
degree 3
dek@@ 3
denken 3
denkt 3
depending 3
destro@@ 3
destruc@@ 3
detect 3
deten 3
developed 3
dient 3
digitalen 3
ding 3
directly 3
dispute 3
dlicher 3
dness 3
double 3
dra@@ 3
drawing 3
dre@@ 3
drei 3
driven 3
drucken 3
due 3
dul@@ 3
dungs@@ 3
easier 3
east 3
eat 3
eb@@ 3
ecting 3
edition 3
eigene 3
eigentlich 3
einfacher 3
einiges 3
element 3
ell 3
elling 3
emb@@ 3
emp@@ 3
ends 3
enen 3
engine 3
ennt 3
enth@@ 3
entire 3
entsprechend 3
entspricht 3
entwickeln 3
entwickelt 3
enz 3
erfüllen 3
erlangt 3
erreichen 3
erreicht 3
ersch@@ 3
erstellt 3
erster 3
erteilt 3
erten 3
erung 3
erwartet 3
erzeugen 3
est@@ 3
etc. 3
etz@@ 3
euer 3
evaluation 3
ever 3
exception 3
expe@@ 3
export 3
fa@@ 3
fair 3
far 3
fe@@ 3
fel 3
fest 3
festgehalten 3
festgelegten 3
fin@@ 3
five 3
fixed 3
flug@@ 3
folgen 3
forbidden 3
form@@ 3
founded 3
freie 3
freien 3
freuen 3
ften 3
fts 3
fun 3
fun@@ 3
funktion 3
fährt 3
games 3
gebiet 3
ged 3
gefahren 3
gegangen 3
gekommen 3
gelangen 3
generation 3
generi@@ 3
gerich@@ 3
gesagt 3
geschlossenen 3
gesellschaften 3
gestalten 3
gestaltet 3
gestern 3
gets 3
gli@@ 3
gments 3
gnisse 3
golden 3
gr@@ 3
grace 3
grant 3
granted 3
greater 3
greg@@ 3
großes 3
größten 3
gute 3
halten 3
haltet 3
happened 3
happiness 3
haus 3
heit 3
hel@@ 3
historischen 3
hn@@ 3
holder 3
holidays 3
hour 3
ia 3
ic 3
id 3
ideal 3
ien 3
illa 3
indicate 3
iness 3
informiert 3
ingly 3
innerhalb 3
ino 3
insofern 3
install 3
instead 3
instructions 3
interessant 3
interest 3
ints 3
ished 3
ishing 3
isse 3
ita 3
ite 3
ited 3
jemand 3
jeweiligen 3
joined 3
joy 3
juris@@ 3
kannst 3
kept 3
kingdom 3
klar 3
kleinen 3
kno@@ 3
kom@@ 3
komme 3
kommerzielle 3
kompatibel 3
kostet 3
könnte 3
laden 3
land@@ 3
lands 3
las 3
laufen 3
laut 3
laws 3
laying 3
least 3
leave 3
lediglich 3
legung 3
leiden 3
leider 3
lernen 3
lets 3
lic@@ 3
licenses 3
liche 3
lichen 3
lichkeits@@ 3
liegen 3
lige 3
light 3
ligt 3
liz@@ 3
ll 3
loaded 3
local 3
location 3
lose 3
luft@@ 3
lus@@ 3
ly 3
läßt 3
löst 3
ma 3
mail 3
mal 3
manchen 3
map 3
mas@@ 3
material 3
mb@@ 3
mes 3
method 3
methode 3
month 3
movement 3
nach@@ 3
nau@@ 3
ne 3
neben 3
need@@ 3
nen 3
nennen 3
neuesten 3
newest 3
ney 3
nie 3
niemand 3
north 3
nothing 3
ns 3
nten 3
nungen 3
ob@@ 3
object 3
obtained 3
offici@@ 3
official 3
oft 3
olle 3
om@@ 3
once 3
opposition 3
ore 3
organized 3
oth 3
otherwise 3
otos 3
ourselves 3
out@@ 3
outs 3
ov@@ 3
over@@ 3
overview 3
paar 3
paid 3
partment 3
pen@@ 3
perat@@ 3
performance 3
persönlichen 3
pf@@ 3
picture 3
plat@@ 3
play@@ 3
players 3
plätze 3
po@@ 3
por@@ 3
presence 3
press 3
pretty 3
previous 3
privacy 3
private 3
privaten 3
prize 3
pro@@ 3
processed 3
programs 3
properly 3
property 3
prove 3
ps 3
pt@@ 3
publication 3
pure 3
quality 3
question 3
quickly 3
quite 3
random 3
ranken 3
rate 3
rated 3
ration 3
reading 3
rec@@ 3
recent 3
recommend 3
record 3
records 3
red 3
reden 3
region 3
registered 3
rel@@ 3
related 3
release 3
relevant 3
represent 3
representation 3
resolution 3
ress 3
restaurants 3
retri@@ 3
rich 3
rich@@ 3
river 3
routes 3
rt 3
rufe 3
ruhen 3
ruhigen 3
rund 3
rän@@ 3
safely 3
sau@@ 3
scheduled 3
schlei@@ 3
schließen 3
schlü@@ 3
schnell 3
schutz 3
sea 3
seiten 3
selbe 3
selben 3
select 3
self 3
sen 3
series 3
servants 3
serve 3
servers 3
setting 3
settings 3
setup 3
several 3
shadow 3
sharp@@ 3
sheit 3
ship 3
shor@@ 3
short 3
show 3
siert 3
signs 3
simple 3
sing 3
sionen 3
sisch 3
slopes 3
smaller 3
sound 3
source 3
spanischen 3
special 3
specific 3
spent 3
spiel@@ 3
sports 3
spot 3
sprachen 3
spreche 3
spricht 3
squ@@ 3
ssel 3
standard 3
ste@@ 3
sted 3
stehen 3
stellten 3
step 3
ster@@ 3
stuff 3
sub@@ 3
suchen 3
sucht 3
suff@@ 3
suffered 3
suggests 3
sur@@ 3
sure 3
surely 3
taken 3
tax 3
teilweise 3
tel@@ 3
tell 3
tem 3
temp@@ 3
tener 3
tern@@ 3
testing 3
tex@@ 3
ther@@ 3
think 3
though 3
thousand 3
thy@@ 3
ticket 3
tigt 3
tim@@ 3
tion 3
tion@@ 3
tip 3
ton@@ 3
tor 3
traffic 3
trans@@ 3
transparency 3
treffen 3
true 3
trying 3
tt@@ 3
tu@@ 3
ture 3
tures 3
tut 3
tä@@ 3
ul@@ 3
ungs@@ 3
urban 3
ux 3
vation 3
ved 3
versch@@ 3
verstän@@ 3
vertra@@ 3
via 3
vieles 3
vielleicht 3
views 3
ving 3
visitors 3
vo@@ 3
volle 3
vorhanden 3
wachsen 3
wai@@ 3
wal@@ 3
wandeln 3
ward 3
warning 3
warnt 3
warten 3
wed 3
weitgehend 3
wenige 3
went 3
werfen 3
werk@@ 3
wh@@ 3
white 3
wichtige 3
wide 3
wife 3
willen 3
wish 3
within 3
wo@@ 3
woh@@ 3
wohl 3
wollte 3
womit 3
wor@@ 3
working 3
worldwide 3
wr@@ 3
write 3
wunderschönen 3
wär@@ 3
yard 3
yesterday 3
ying 3
z.B. 3
zah@@ 3
zahl@@ 3
zahlreiche 3
zeichen 3
zeigte 3
zierten 3
zing 3
zlich 3
zugänglich 3
zurück 3
zwar 3
Über@@ 3
än@@ 3
ñ@@ 3
öp@@ 3
ös@@ 3
ür@@ 3
# 2
,@@ 2
.de 2
.org 2
00 2
001 2
04 2
04@@ 2
08 2
1.4 2
1000 2
10@@ 2
13@@ 2
1500 2
160 2
16@@ 2
1933 2
1939 2
1945 2
196 2
1965 2
1970 2
1971 2
1983 2
1988 2
1990 2
1992 2
1993 2
1995 2
1998 2
23@@ 2
30@@ 2
365 2
3D 2
4. 2
40@@ 2
500 2
59 2
6. 2
600 2
61 2
62 2
68 2
71 2
74 2
76 2
8th 2
95 2
@ 2
AG@@ 2
AND 2
AR 2
AS 2
AT 2
Absch@@ 2
Absichten 2
Aero@@ 2
African 2
Ah@@ 2
Airlines 2
Airways 2
Aktionen 2
Aktivi@@ 2
Ankunft 2
Anlage@@ 2
Another 2
Antwort 2
Anweisungen 2
Anwender 2
Anwendungen 2
Any 2
April 2
Aqu@@ 2
Arbeitsgruppe 2
Are 2
Artikel 2
As@@ 2
Association 2
Atlantic 2
Auf 2
Auf@@ 2
Aufbau 2
Aufenthalt 2
Auftrag 2
August 2
Aus 2
Auto@@ 2
Autor 2
Außerdem 2
Award 2
B. 2
BM@@ 2
Back@@ 2
Bahn 2
Bal@@ 2
Bangkok 2
Bank 2
Banking 2
Bars 2
Bau 2
Beach 2
Beachten 2
Bedarf 2
Beg@@ 2
Beiträge 2
Bel@@ 2
Bereich 2
Bereiche 2
Besondere 2
Bet@@ 2
Bewertung 2
Bewohner 2
Bezahlung 2
Bezeichnung 2
Beziehung 2
Bil@@ 2
Blei@@ 2
Blick 2
Blut@@ 2
Board 2
Bonus 2
Box 2
Br@@ 2
Bri@@ 2
Bridge 2
Brief@@ 2
Bruder 2
Buchstaben 2
Bungalows 2
Bus 2
Business 2
Bün@@ 2
CEO 2
CH@@ 2
CO@@ 2
Camping@@ 2
Can@@ 2
Canada 2
Cany@@ 2
Cap@@ 2
Cav@@ 2
Ce@@ 2
Ch@@ 2
Chan@@ 2
Chile 2
Chinese 2
Chro@@ 2
Class 2
Club 2
Co 2
Col@@ 2
Com 2
Conference 2
Connec@@ 2
Cookies 2
Corporate 2
Corporation 2
Create 2
Credit 2
Cuba 2
DA@@ 2
DH@@ 2
DI@@ 2
Dadurch 2
Damit 2
Dann 2
Das@@ 2
Datenbank 2
Denk@@ 2
Depending 2
Der@@ 2
Deutsch 2
Digital@@ 2
Dingen 2
Doch 2
Dok@@ 2
Dol@@ 2
Donn@@ 2
Dort 2
Dou@@ 2
Dro@@ 2
Dunk@@ 2
Dyn@@ 2
Dü@@ 2
EC@@ 2
EE@@ 2
ET@@ 2
EURO@@ 2
Ed@@ 2
Ehr@@ 2
Eigentums 2
Einen 2
Einhaltung 2
Einrichtung 2
Einstellung 2
Einwohnern 2
End@@ 2
Englisch 2
Entscheidung 2
Entwicklung 2
Equi@@ 2
Erinnerung 2
Erlaubnis 2
Erstellen 2
Ersten 2
Eu@@ 2
Europäische 2
Europäischen 2
Events 2
Experten 2
Express 2
FAQ 2
Fa@@ 2
Fair 2
Farben 2
Fat@@ 2
Feuer 2
Finanzierung 2
Firmen@@ 2
Fl@@ 2
Flug@@ 2
Flü@@ 2
Following 2
Formate 2
Forschungs@@ 2
France 2
Freedom 2
French 2
Frieden 2
Fund 2
Funktionalität 2
Führer 2
Für 2
GD 2
GI 2
GNU 2
Ga@@ 2
Ganzen 2
Geburt 2
Gebäude 2
Gegen@@ 2
Gegensatz 2
Geheimnis 2
Gel@@ 2
Geni@@ 2
Gerechtigkeit 2
Gerä@@ 2
Geräte 2
Geschichte 2
Geschäft 2
Gesetze 2
Gewalt 2
Gewinner 2
Gir@@ 2
Glau@@ 2
Global 2
Good 2
Got@@ 2
Gra@@ 2
Grafik 2
Großbritannien 2
Gründe 2
Guide 2
H 2
H. 2
HP 2
HT@@ 2
Ha@@ 2
Hafen 2
Halbinsel 2
Having 2
Heim@@ 2
Hinter@@ 2
Hintergrund 2
His@@ 2
Hot 2
How 2
Hungary 2
Hände 2
IBM 2
IF 2
IP 2
IP@@ 2
IS 2
IV@@ 2
Il@@ 2
Im@@ 2
Imm@@ 2
Inc 2
Inc. 2
Industrie@@ 2
Informatik 2
Information 2
Infrastruktur 2
Ingenie@@ 2
Inhalts 2
Innerhalb 2
Insel 2
Instrument 2
Instruments 2
Inter@@ 2
Interess@@ 2
International 2
Internet 2
Is@@ 2
Israeli 2
Ist 2
Istanbul 2
Italian 2
Its 2
JPEG 2
Jac@@ 2
Jahr@@ 2
Jahrhundert 2
Jak@@ 2
January 2
Java 2
Je 2
Jede 2
Jedes 2
Kann 2
Karlsruhe 2
Kenn@@ 2
Kir@@ 2
Kirche 2
Kl@@ 2
Klassen 2
Klein@@ 2
Klima 2
Kok@@ 2
Kommunikations@@ 2
Konfiguration 2
Korrek@@ 2
Kreditkarte 2
Kurz@@ 2
Küste 2
LA@@ 2
La 2
Lab@@ 2
LabVIEW 2
Laman@@ 2
Land@@ 2
Landschaft 2
Las 2
Law 2
Learn 2
Leipzig 2
Let 2
Lev@@ 2
Licht 2
Line 2
List 2
Living 2
Lizenzen 2
Lloyd 2
Logo 2
Luftverkehr 2
Luftverkehrs@@ 2
Ly@@ 2
Länder 2
MB 2
Ma@@ 2
Madrid 2
Mag@@ 2
Majorca 2
Mal 2
Malm@@ 2
Manager 2
Manchester 2
Mar@@ 2
Material 2
Maße 2
Mec@@ 2
Meer@@ 2
Mein 2
Meine 2
Men 2
Messe 2
Metro@@ 2
Micro@@ 2
Mike 2
Millionen 2
Mission 2
Mitte 2
Mobile 2
Model@@ 2
Moment@@ 2
Monats 2
Most 2
Mountains 2
Musik@@ 2
Männer 2
Männern 2
Mü@@ 2
NE@@ 2
Nach 2
Nachtleben 2
Natur@@ 2
Neben 2
Ner@@ 2
Net@@ 2
Netz 2
Neu@@ 2
Next 2
Nicht 2
No 2
Nord@@ 2
Nordo@@ 2
Northern 2
Nummer 2
Nutz@@ 2
Nutzungs@@ 2
Nähe 2
Obwohl 2
Once 2
Oper@@ 2
Ordner 2
Organisations@@ 2
Original@@ 2
Ort 2
Osten 2
Pal@@ 2
Papier@@ 2
Paris 2
Particip@@ 2
Pas@@ 2
PayPal 2
Person 2
Persön@@ 2
Persönlichkeit 2
Pfad 2
Ph@@ 2
Pisten 2
Pixel 2
Platz 2
Play@@ 2
Post@@ 2
Pres@@ 2
Produkt 2
Professor 2
Profile 2
Programmen 2
Programmi@@ 2
Projekt 2
Projekten 2
Pul@@ 2
Put@@ 2
RE@@ 2
RSS 2
Rat 2
Rau@@ 2
Rechen@@ 2
Rechnungs@@ 2
Referenz@@ 2
Regi@@ 2
Rei@@ 2
Reich 2
Reihe 2
Research 2
Respon@@ 2
Rest 2
Ri@@ 2
Rich@@ 2
Rights 2
Rindfleisch 2
River 2
Road@@ 2
Rom@@ 2
Ru@@ 2
Rus@@ 2
Russian 2
Rö@@ 2
Rü@@ 2
SA@@ 2
SEO 2
SSL 2
SU@@ 2
Sab@@ 2
Sam@@ 2
San@@ 2
Santiago 2
Schei@@ 2
Schiff 2
Schla@@ 2
Schlaf@@ 2
Schreib@@ 2
Schriften 2
Schritten 2
Schutz 2
Schö@@ 2
Schön@@ 2
Scienti@@ 2
Sea 2
Seg@@ 2
Sehenswürdigkeiten 2
Sehr 2
Seit 2
Sekunden 2
Selbst@@ 2
Select 2
Ser@@ 2
Setup 2
Sicherheit 2
Silber@@ 2
Simply 2
Since 2
Sinn 2
Sinn@@ 2
Sinne 2
Sonntag 2
Sor@@ 2
Spaniens 2
Spe@@ 2
Special 2
Spiele 2
Spieler 2
Sprach@@ 2
Stahl@@ 2
Stand 2
Stand@@ 2
Station 2
Status 2
Stellen 2
Still 2
Stoffe 2
Storni@@ 2
Stre@@ 2
Stream 2
Strecken 2
Stück 2
Support 2
Swedish 2
Systeme 2
TC 2
TO@@ 2
Tabelle 2
Taus@@ 2
Team 2
Techn@@ 2
Technik 2
Technologie 2
Technology 2
Termin@@ 2
Test@@ 2
Tex@@ 2
Thai 2
Thanks 2
That 2
Thema 2
Today 2
Ton 2
Tourismus 2
Tra@@ 2
Tradition 2
Transaktionen 2
Transparenz 2
Trau@@ 2
Treiber 2
Tu@@ 2
Typ 2
Typ@@ 2
U 2
UN@@ 2
UND 2
UP 2
USA 2
Uhr 2
Ungar@@ 2
Union 2
Unser 2
Unter 2
Unterkünfte 2
Urheberrecht 2
User 2
Valle 2
Valley 2
Ve@@ 2
Verbindungen 2
Verfahren 2
Vertrau@@ 2
Vertrauen 2
Verwenden 2
Victoria 2
Viele 2
Vill@@ 2
Villa 2
Visa 2
Vista 2
Visual 2
Volkes 2
Vorbereitungen 2
Vö@@ 2
WF 2
Wa@@ 2
Waffen@@ 2
Wahl 2
Watch 2
We@@ 2
Website 2
Weihnachten 2
Weitere 2
Weitergabe 2
Wel@@ 2
Welt@@ 2
Werken 2
Werten 2
West 2
Wettbewerb 2
Whit@@ 2
Wid@@ 2
Wieder@@ 2
Wikipedia 2
Wille 2
Winter 2
Wirkung 2
Wis@@ 2
Wissens@@ 2
Wohl@@ 2
Wohlergehen 2
Wohlstand 2
Wohnzimmer 2
Wollen 2
Workshop 2
World 2
Worten 2
Wählen 2
XP 2
XX@@ 2
Zahl 2
Zeh@@ 2
Zeichen@@ 2
Zeile 2
Zeit@@ 2
Zeiten 2
Zend 2
Zeu@@ 2
Ziel 2
Ziele 2
Zimm@@ 2
Zug 2
Zum 2
Zwecken 2
Zwei 2
a. 2
abe 2
aber@@ 2
abgeschlossen 2
accepts 2
accessible 2
accurate 2
ach@@ 2
acht 2
ack@@ 2
acks 2
actions 2
active 2
actual 2
addition 2
additional 2
affect 2
agency 2
ago 2
agree 2
agreement 2
ai@@ 2
aid 2
ails 2
aims 2
air@@ 2
airlines 2
ak@@ 2
akadem@@ 2
akes 2
aktiv 2
aktiviert 2
ale 2
aled 2
alen 2
ali@@ 2
alle@@ 2
ally 2
almost 2
along 2
ame 2
aming 2
amm@@ 2
amount 2
amp@@ 2
anderwei@@ 2
angeben 2
angenehm 2
angesehen 2
anlage 2
anlässlich 2
announcement 2
annte 2
ano@@ 2
ansa 2
ante 2
antes 2
anti@@ 2
ants 2
anything 2
anzu@@ 2
appear 2
appears 2
application 2
applications 2
appointment 2
approach 2
arbeitungs@@ 2
architectural 2
ares 2
ari@@ 2
arise 2
arm@@ 2
art@@ 2
asked 2
asses 2
assigned 2
ast@@ 2
ated 2
ationen 2
ato 2
ators 2
atory 2
attention 2
attributed 2
atur@@ 2
au 2
au@@ 2
aufgaben 2
aufgeführt 2
aufre@@ 2
auft 2
ausgeben 2
ausgerichtet 2
ausgestattet 2
ausgewäh@@ 2
ausgewählt 2
ausgeübt 2
auswahl 2
auto 2
automati@@ 2
automatische 2
außerord@@ 2
awa@@ 2
awarded 2
ba@@ 2
baby 2
bal 2
bars 2
basic 2
beach@@ 2
beachten 2
becomes 2
bedeut@@ 2
bedroom 2
beef 2
beenden 2
bege@@ 2
begeben 2
begeistert 2
beginnen 2
begonnen 2
behandelt 2
bei@@ 2
beide 2
bekannte 2
bekommt 2
bench@@ 2
benen 2
beratung 2
bereit@@ 2
bereiten 2
bereitet 2
bes 2
besitzen 2
besondere 2
besonderen 2
besonders 2
bessere 2
bestehen 2
bestellen 2
bestimmen 2
bet@@ 2
beteiligt 2
beten 2
better 2
bewahrt 2
bewegen 2
bewegung 2
bezeichnet 2
bigen 2
bilder 2
bin@@ 2
birth 2
bitten 2
bitter 2
blichen 2
blin@@ 2
blind 2
blu@@ 2
blue 2
boats 2
boden 2
bol@@ 2
bone 2
book@@ 2
bor@@ 2
brachten 2
brand 2
bre 2
brush 2
bs 2
building 2
business 2
businesses 2
bute 2
by@@ 2
cal 2
cal@@ 2
calculation 2
calls 2
cally 2
camp 2
camp@@ 2
cancellation 2
capital 2
car@@ 2
cards 2
cargo 2
cas@@ 2
cast 2
century 2
certain 2
chal@@ 2
character 2
charter 2
che@@ 2
cher@@ 2
ches 2
chi@@ 2
chn@@ 2
cho@@ 2
cies 2
circumstances 2
ckers 2
cks 2
cl@@ 2
class 2
classes 2
clear 2
cles 2
cli@@ 2
clicking 2
coast 2
cold 2
collection 2
collective 2
comes 2
comfort 2
comments 2
communication 2
company 2
completely 2
comprehensive 2
conference 2
consi@@ 2
construc@@ 2
contained 2
contains 2
contents 2
continues 2
control 2
controls 2
conv@@ 2
cool 2
cooperation 2
corner 2
correct 2
corresponding 2
cou@@ 2
count 2
counter 2
country 2
couple 2
courses 2
cover 2
credit 2
crisis 2
dabei 2
dadurch 2
daily 2
dak@@ 2
danach 2
dank 2
daraus 2
dated 2
daten 2
deal 2
declar@@ 2
declared 2
decoration 2
ded 2
default 2
deinen 2
deli@@ 2
den@@ 2
dennoch 2
dens 2
deposit 2
derer 2
derog@@ 2
derselben 2
dest@@ 2
det@@ 2
dete 2
deutlich 2
deutsch@@ 2
developers 2
development 2
dge 2
di 2
didn 2
differences 2
dig 2
digt 2
dio@@ 2
direct 2
directory 2
direkten 2
dis@@ 2
disco@@ 2
distribute 2
dition 2
divided 2
dlich 2
dliche 2
dly 2
document 2
documentation 2
doing 2
dor 2
download 2
drag 2
dramatically 2
drawings 2
drivers 2
dungen 2
duties 2
dy 2
dynam@@ 2
dürfen 2
e.g 2
ead 2
ece 2
ecken 2
economic 2
economy 2
eder@@ 2
eding 2
edy 2
effek@@ 2
efficient 2
egelt 2
ehr@@ 2
ei 2
eigen@@ 2
eigenes 2
eigentlichen 2
eight 2
eignet 2
einander 2
eingeb@@ 2
eingebet@@ 2
eingegangen 2
eingesch@@ 2
eite 2
eken 2
ekten 2
elect 2
ellem 2
eln 2
else 2
elte 2
ely 2
email 2
embedded 2
embran@@ 2
ement 2
emer@@ 2
ems 2
enables 2
encrypted 2
endorse 2
enemy 2
enst@@ 2
ente 2
entfernen 2
entgegen@@ 2
enti@@ 2
entlichen 2
entsprechende 2
entstandenen 2
entweder 2
entwick@@ 2
entwicklung 2
eon 2
eping 2
equ@@ 2
equipment 2
ere 2
erende 2
erer 2
erfahren 2
erfolgt 2
erfrisch@@ 2
erfüllt 2
erheben 2
erhebt 2
erk@@ 2
erklären 2
erläutern 2
ermitteln 2
ern 2
erneut 2
ernsthaft 2
error 2
ers@@ 2
erstellen 2
erstklassigen 2
erweitern 2
erweiterte 2
esa 2
ess@@ 2
ession 2
established 2
etch 2
ett 2
ette 2
etwas 2
eure 2
eurer 2
europäische 2
europäischen 2
exact 2
excellent 2
exciting 2
existence 2
expand 2
explain 2
exploit 2
exposed 2
extended 2
fach@@ 2
fache 2
fal@@ 2
fall@@ 2
fan@@ 2
far@@ 2
farbe 2
farben 2
fascinating 2
faszini@@ 2
fav@@ 2
favorite 2
fear 2
feature 2
feed 2
feel 2
fees 2
fell 2
fem@@ 2
fest@@ 2
fi 2
fiel 2
fier 2
fil@@ 2
finally 2
finance 2
finanzi@@ 2
finish 2
firm 2
fishing 2
fit 2
fix 2
fle@@ 2
fleet 2
flexible 2
fliegen 2
folder 2
folgende 2
folgenden 2
follow 2
food 2
formats 2
formular 2
fort 2
foundation 2
front 2
frü@@ 2
fs 2
fu@@ 2
fulfilled 2
fung 2
funktioniert 2
furnished 2
führend 2
führenden 2
für@@ 2
gains 2
gar 2
gebenen 2
geber 2
geblieben 2
gebnisse 2
gebo@@ 2
gebraucht 2
gedacht 2
gegenüber 2
gegrün@@ 2
geh@@ 2
gehende 2
gehört 2
gel@@ 2
gelad@@ 2
gelegt 2
geleitet 2
gelieferten 2
geltenden 2
gemeinsam 2
gemeinsame 2
gende 2
gendes 2
gener@@ 2
genügen 2
gerechten 2
gerichtet 2
gerne 2
gers 2
gerufen 2
gesandt 2
geschah 2
geschehen 2
geschnit@@ 2
gesehen 2
gespeich@@ 2
gessen 2
gest@@ 2
getroffen 2
gewi@@ 2
gewinnen 2
gewährt 2
gewünschten 2
geöffnet 2
gger 2
gh@@ 2
ghty 2
gic 2
gie@@ 2
ging 2
glas 2
gleiche 2
glichen 2
glichkeit 2
globe 2
gn@@ 2
gnis 2
goes 2
golf 2
governments 2
gra@@ 2
grand 2
green 2
gres@@ 2
gri@@ 2
grosse 2
growing 2
growth 2
groß 2
großer 2
größte 2
gründet 2
gst 2
gter 2
guarantee 2
guests 2
guide 2
gutes 2
gän@@ 2
günstigen 2
hal@@ 2
halb 2
halle 2
halte 2
hand@@ 2
happy 2
hard 2
has@@ 2
heads 2
hear@@ 2
heim@@ 2
helfen 2
heraus 2
here@@ 2
heres 2
herrlichen 2
herum 2
herunter 2
heruntergeladen 2
hervor@@ 2
hervorragend 2
highest 2
highly 2
hilft 2
hinweg@@ 2
historic 2
historical 2
history 2
hoch 2
hofer 2
hohen 2
hol@@ 2
hold 2
hours 2
houses 2
hr@@ 2
ht 2
http 2
human 2
hyper@@ 2
höchsten 2
hört 2
ian 2
ic@@ 2
ically 2
identisch 2
ielt 2
iert 2
ierung 2
ierungen 2
ies 2
iger 2
iges 2
ign 2
ih@@ 2
iling 2
ille 2
illu@@ 2
imm@@ 2
implemen@@ 2
implemented 2
impressive 2
ina 2
inc@@ 2
independent 2
indi@@ 2
individuals 2
inian 2
initiate 2
ink 2
inklusive 2
innen 2
ino@@ 2
inos 2
installations 2
installer 2
instantly 2
instrument 2
insula 2
int@@ 2
integration 2
interessiert 2
interface 2
interior 2
investment 2
involved 2
irre@@ 2
island 2
isolated 2
issues 2
ist@@ 2
ites 2
ität 2
ize 2
izza 2
je 2
jene 2
jenes 2
joining 2
jour@@ 2
journ@@ 2
juristische 2
kam 2
kehr@@ 2
keinem 2
keiner 2
kel@@ 2
key 2
kit@@ 2
kleinere 2
km 2
knew 2
knowing 2
ko@@ 2
kommenden 2
kompati@@ 2
komplette 2
kontrolle 2
krei@@ 2
kul@@ 2
kurzem 2
könnten 2
lab@@ 2
language 2
lar@@ 2
large 2
largely 2
lars 2
lau@@ 2
learn 2
learning 2
leben 2
lebende 2
legt 2
leicht 2
leistungs@@ 2
leitet 2
lem 2
less 2
letter 2
letzte 2
lev@@ 2
licensed 2
licity 2
liebe@@ 2
liegenden 2
lies 2
lifts 2
lig 2
ligten 2
lik@@ 2
lin 2
lines 2
listet 2
litten 2
loading 2
locals 2
lokale 2
longer 2
looks 2
lost 2
lot 2
loud 2
love 2
lovely 2
lten 2
lug@@ 2
lungen 2
lä@@ 2
lässt 2
läuft 2
maintenance 2
mals 2
manager 2
maps 2
market 2
markets 2
marking 2
marks 2
match 2
maybe 2
meal 2
medi@@ 2
mein@@ 2
mention 2
mern 2
mid 2
mil@@ 2
mild 2
milk 2
milli@@ 2
million 2
min 2
mind 2
minds 2
minim@@ 2
minister 2
minor 2
miteinander 2
mitteilen 2
mittlere 2
mixed 2
mm 2
mm@@ 2
mod@@ 2
mon@@ 2
mor@@ 2
moral 2
mother 2
move 2
moved 2
ms 2
mt 2
mul@@ 2
mund 2
mut 2
mware 2
mä@@ 2
mächtigen 2
möge 2
mögen 2
möglicherweise 2
müßte 2
nahm 2
nahmen 2
nai@@ 2
named 2
natürlich 2
navigation 2
neighb@@ 2
nem 2
nen@@ 2
nes 2
nett 2
networks 2
neues 2
neutral 2
nevertheless 2
newly 2
nic@@ 2
niemanden 2
nieren 2
nimmt 2
nisse 2
nissen 2
no@@ 2
not@@ 2
notable 2
notwendig 2
nt 2
nutzt 2
nächsten 2
oben 2
objects 2
observe 2
obtain 2
offene 2
offenen 2
offering 2
oftmals 2
oh@@ 2
olds 2
oll 2
om 2
ome 2
omo 2
ona 2
one@@ 2
onto 2
opened 2
ordin@@ 2
ordnungen 2
ored 2
organisation 2
organisiert 2
organisierten 2
organizing 2
orial 2
ose 2
ould 2
ous 2
outside 2
pan 2
parent 2
particularly 2
partner 2
past 2
pat@@ 2
pay 2
peer 2
peninsula 2
perfect 2
pers 2
perspectives 2
pick 2
pictures 2
plain 2
plans 2
plant 2
plate 2
plenty 2
poker 2
pole 2
politik 2
poll@@ 2
port 2
port@@ 2
pos@@ 2
positions 2
post 2
potential 2
powerful 2
pr@@ 2
prac@@ 2
prakti@@ 2
prepare 2
pres@@ 2
presented 2
pressing 2
privati@@ 2
prob@@ 2
problemlos 2
productivity 2
produkten 2
professionals 2
professionelle 2
professor 2
profit 2
programme 2
projec@@ 2
promenade 2
promote 2
promotional 2
prosp@@ 2
prosperity 2
protects 2
provided 2
provides 2
providing 2
prozess 2
publish 2
published 2
punkte 2
quelle 2
range 2
rap@@ 2
rare 2
raum 2
readers 2
real 2
reason@@ 2
received 2
recht 2
rechten 2
recur@@ 2
red@@ 2
ree 2
reference 2
regeln 2
regi@@ 2
reiber 2
reibung 2
reich 2
reicht 2
reject 2
remain 2
remains 2
removal 2
removed 2
rental 2
repair 2
replacing 2
report 2
reporting 2
represents 2
requires 2
reservation 2
resi@@ 2
residential 2
resorts 2
respective 2
restaurant 2
resul@@ 2
results 2
reveal 2
review 2
revolution 2
ri 2
ric 2
richten 2
richtig 2
risi@@ 2
row 2
ru@@ 2
rules 2
runs 2
ry 2
ränk@@ 2
rüstung 2
sagen 2
schmer@@ 2
school 2
schreiben 2
security 2
seek 2
seems 2
seen 2
seien 2
seite 2
semi 2
send 2
sending 2
sent 2
served 2
serving 2
setzen 2
setzt 2
setzten 2
seven 2
sha@@ 2
shared 2
she 2
shopping 2
short@@ 2
shown 2
shows 2
sible 2
sicherer 2
sicherlich 2
sichtlich 2
side 2
sieben 2
sien 2
sight 2
signing 2
single 2
sion 2
sions@@ 2
siven 2
sleep 2
sm@@ 2
social 2
sol@@ 2
solange 2
solcher 2
sollte 2
someone 2
sophisticated 2
sorgen 2
sorten 2
southern 2
speichern 2
spo@@ 2
spons@@ 2
sport@@ 2
sprache 2
sprech@@ 2
sprüche 2
sq@@ 2
ssen 2
sta 2
stan@@ 2
stand@@ 2
standardi@@ 2
stands 2
stant 2
start 2
started 2
starten 2
starting 2
statistics 2
statt 2
status 2
steel 2
steh@@ 2
stellt 2
stellung 2
steps 2
sterben 2
sting 2
stone 2
stop 2
stor@@ 2
store 2
stran@@ 2
strange 2
strations 2
stream 2
strecken 2
stry 2
sts 2
stu@@ 2
studio 2
su 2
submitted 2
sufficiently 2
supplement 2
supplied 2
supported 2
surf 2
surrounding 2
sweet 2
switch 2
syn@@ 2
tags 2
tagung 2
tal 2
tan@@ 2
tasks 2
tatsächliche 2
tauschen 2
tausend 2
teacher 2
team 2
technologies 2
teil 2
teils 2
teilte 2
tempor@@ 2
tens 2
tere 2
tes@@ 2
thanks 2
theit 2
theme 2
thereby 2
thes 2
thin 2
thinking 2
thou@@ 2
thousands 2
three 2
thumb@@ 2
tic 2
tickets 2
tics 2
tie 2
tierenden 2
tiert 2
tierte 2
tierung 2
tim 2
tionary 2
tischen 2
tise 2
tism 2
tiv@@ 2
tless 2
tly 2
tn@@ 2
tolle 2
tors 2
totally 2
tracking 2
trade 2
trademark 2
tradition@@ 2
tragene 2
training 2
tranquil 2
transactions 2
transfer 2
translation 2
transportation 2
travel@@ 2
treatment 2
trend 2
trial 2
tried 2
trinken 2
tro@@ 2
trop@@ 2
tru@@ 2
trust 2
try 2
tter@@ 2
tun@@ 2
tut@@ 2
types 2
typical 2
typisch 2
tz@@ 2
u. 2
ue 2
umfangreichen 2
ummer 2
ump@@ 2
umzu@@ 2
unde@@ 2
unden 2
unds 2
unge@@ 2
ungs 2
unterscheiden 2
unterwegs 2
update 2
upgrade 2
urement 2
us@@ 2
useful 2
uss 2
usw 2
usw. 2
ut@@ 2
utes 2
utt@@ 2
va 2
vacation 2
varies 2
vary 2
verbinden 2
verbringen 2
verfügbar 2
verfügbaren 2
verkaufen 2
verlassen 2
verlängert 2
vern@@ 2
vers 2
verschiedener 2
verschlüssel@@ 2
versteht 2
versucht 2
vi@@ 2
vil@@ 2
viol@@ 2
vollständigen 2
vorge@@ 2
vorhandenen 2
vulnerability 2
vulnerable 2
wald 2
walking 2
wand@@ 2
wann 2
warum 2
water@@ 2
ways 2
web@@ 2
weekend 2
wege 2
weiteren 2
weitergeben 2
welches 2
welfare 2
weltweit 2
wenden 2
wer@@ 2
werten 2
wertes 2
wesentlich 2
west 2
whatsoever 2
whereas 2
why 2
wider@@ 2
wiederum 2
wild 2
win@@ 2
windet 2
wirken 2
wirklich 2
wirkt 2
wirtschaftliche 2
wis 2
wise 2
wishes 2
with@@ 2
wobei 2
wollten 2
worauf 2
work@@ 2
worthy 2
wovon 2
wrote 2
wunder@@ 2
wur@@ 2
www.@@ 2
währung 2
wäs@@ 2
würden 2
würdig 2
xt 2
xx 2
yers 2
yl@@ 2
yn@@ 2
yours 2
yourself 2
zahlen 2
zahlung 2
zehn 2
zeichnung 2
zeit 2
zer 2
zero 2
zeugen 2
ziehen 2
zieren 2
ziert 2
zimmern 2
zogen 2
zug 2
zugeben 2
zugewiesen 2
zugr@@ 2
zukommen 2
zunächst 2
zurückkehren 2
zustande 2
zustimmen 2
zusätzliche 2
zusätzlichen 2
zweck 2
zügig 2
Ö@@ 2
Öffentlichkeit 2
äch@@ 2
äh@@ 2
älteste 2
ändern 2
ären 2
äst@@ 2
í 2
ö 2
ö@@ 2
öffentlich 2
öffentlichen 2
öffnen 2
ön@@ 2
überaus 2
überlassen 2
überprüfen 2
ün@@ 2
ürzt 2
&apos;m 1
-- 1
.-@@ 1
.com 1
.net 1
0,000 1
1.1 1
1.5 1
11th 1
12. 1
15@@ 1
17th 1
18. 1
19. 1
19.@@ 1
1973 1
1996 1
19th 1
2.1 1
2001 1
22. 1
24@@ 1
26@@ 1
2nd 1
3,@@ 1
3000 1
350 1
4.@@ 1
46 1
4th 1
5. 1
5.000 1
5@@ 1
5th 1
6.@@ 1
63 1
64 1
67 1
69 1
6th 1
73 1
75 1
79 1
9.@@ 1
98 1
9@@ 1
A. 1
AC 1
AL@@ 1
API 1
AS@@ 1
ATION 1
Abend 1
Ablauf 1
Abreise 1
Abschnitt 1
Abteilung 1
According 1
Ad 1
Adap@@ 1
Advanced 1
Afrika 1
After 1
Again 1
Airport 1
Ak@@ 1
Aktivitäten 1
Aktu@@ 1
Ale@@ 1
Ali 1
Allerdings 1
Allow 1
Almost 1
Along 1
American 1
Analy@@ 1
Ander@@ 1
Ang@@ 1
Angabe 1
Angaben 1
Angel@@ 1
Anlagen 1
Anmel@@ 1
Anpass@@ 1
Ansch@@ 1
Anschein 1
Anschluss 1
Anteil 1
Anwendung 1
Anzahlung 1
Anzeige 1
Anzeigen 1
Ap@@ 1
Apart 1
Apart@@ 1
Application 1
Applikationen 1
Architek@@ 1
Architektur 1
Arena 1
Argentina 1
Argentinien 1
Armen 1
Arti@@ 1
Arzt 1
Atlan@@ 1
Au@@ 1
Auff@@ 1
Aufgaben 1
Auflösung 1
Aufmerk@@ 1
Augen@@ 1
Ausdehnung 1
Ausflüge 1
Ausmaß 1
Ausnahme 1
Ausstattung 1
Autom@@ 1
Autor@@ 1
Autoren 1
BC 1
Baby 1
Bach@@ 1
Bahnhof 1
Ball 1
Bank@@ 1
Based 1
Basi@@ 1
Bau@@ 1
Bauern@@ 1
Be 1
Beantwortung 1
Bearbeitungs@@ 1
Beau@@ 1
Bed 1
Bedeutung 1
Beginn 1
Behörde 1
Bei@@ 1
Beispielsweise 1
Bek@@ 1
Below 1
Benutzer 1
Benutzer@@ 1
Benutzern@@ 1
Ber@@ 1
Bereits 1
Bergen 1
Berliner 1
Besch@@ 1
Beschaff@@ 1
Beschluß 1
Beschlüsse 1
Besitz 1
Besitz@@ 1
Besitzer 1
Besonderheiten 1
Besonders 1
Besorgnis 1
Bestätigung 1
Besucher 1
Beteiligten 1
Betrieb@@ 1
Betro@@ 1
Between 1
Bevölkerung 1
Bewer@@ 1
Bezirk 1
Bezug 1
Bibliothek 1
Bildes 1
Bill 1
Billi@@ 1
Bin@@ 1
Bis 1
Bisch@@ 1
Bit 1
Bit@@ 1
Bla@@ 1
Black 1
Blick@@ 1
Blin@@ 1
Blog 1
Blog@@ 1
Blut 1
Bol@@ 1
Boo@@ 1
Botschaften 1
Bou@@ 1
Brazilian 1
Breakfast 1
Breit@@ 1
Bro@@ 1
Brü@@ 1
Buchen 1
Bus@@ 1
Button 1
By 1
Bö@@ 1
Bügel@@ 1
Bünd@@ 1
Bürger 1
Büro 1
CA 1
CM@@ 1
CMS 1
COM 1
Ca@@ 1
Cadi@@ 1
Campingplatz 1
Can 1
Car 1
Central 1
Centre 1
Cer@@ 1
Chal@@ 1
Championship 1
Chance 1
Charak@@ 1
Charakter 1
Chin@@ 1
Chr. 1
Chris 1
Christ@@ 1
Christopher 1
Cl@@ 1
Click 1
Client 1
Clients 1
Clubs 1
Commer@@ 1
Community 1
Company 1
Competition 1
Comple@@ 1
Connect 1
Contact 1
Conver@@ 1
Cor@@ 1
Cou@@ 1
Council 1
Culture 1
Cur@@ 1
Currently 1
D. 1
DB 1
DM 1
DR@@ 1
Da@@ 1
Dabei 1
Dank 1
Data 1
Datenbanken 1
Datenschutz 1
Datenschutz@@ 1
Datum 1
Days 1
Deb@@ 1
Debatte 1
Deli@@ 1
Dem@@ 1
Demo 1
Dep@@ 1
Deposit 1
Derzeit 1
Des 1
Des@@ 1
Designs 1
Desktop 1
Det@@ 1
Deutschland 1
Deutschlands 1
Dev@@ 1
Dich 1
Did 1
Dienst 1
Dienstes 1
Dienstleistungen 1
Dimensionen 1
Direc@@ 1
Director 1
Distri@@ 1
Doc@@ 1
Dokument 1
Dokumentation 1
Dokuments 1
Dollar 1
Domini@@ 1
Don 1
Doppel@@ 1
Doppelbett 1
Doppelzimmer 1
Dorf 1
Downloads 1
Drei 1
Drei@@ 1
Dri@@ 1
Drit@@ 1
Drucker 1
Dun@@ 1
Dynam@@ 1
ED 1
ED@@ 1
EL@@ 1
EN 1
ER 1
East 1
Eastern 1
Ebene 1
Ebenso 1
Echtzeit 1
Eff@@ 1
Effekte 1
Ehe@@ 1
Ehre 1
Eigentlich 1
Eigentum 1
Einbeziehung 1
Einblick 1
Einfluss 1
Einnahmen 1
Einsatz 1
Elementen 1
Emotionen 1
Engine 1
Engine@@ 1
Engineering 1
English 1
Ent@@ 1
Entscheidungs@@ 1
Entwick@@ 1
Entwicklungen 1
Environment 1
Erbe 1
Ereignisse 1
Erfin@@ 1
Erfolg 1
Ergebnis 1
Erleben 1
Erschein@@ 1
Erweiterung 1
Erwerb 1
Erwähnung 1
Ess@@ 1
Essen 1
Establi@@ 1
Estland 1
Eta@@ 1
Etage 1
Euch 1
Europ@@ 1
Europa@@ 1
Evaluierung 1
Everyone 1
Everything 1
Expan@@ 1
Experim@@ 1
Exporte 1
FA@@ 1
FRE@@ 1
Fang@@ 1
Far 1
Far@@ 1
Fas@@ 1
Federation 1
Fehler@@ 1
Fein@@ 1
Feld 1
Felsen 1
Fenster 1
Fer@@ 1
Feri@@ 1
Ferien 1
Ferner 1
Fernseh@@ 1
Fernseher 1
Fest 1
Film@@ 1
Finanz@@ 1
Fir@@ 1
Fisch 1
Fischerei 1
Five 1
Fluggesellschaft 1
Fluggesellschaften 1
Flughafen 1
Flugzeug 1
Flugzeuge 1
Flächen 1
Fo@@ 1
Forderungen 1
Foren 1
Form 1
Fortschritt 1
Forum 1
Foto 1
Frankfurter 1
Frankreich 1
Französisch 1
Frauen 1
Freie 1
Freiheiten 1
Freizeit 1
Freund 1
Freunden 1
Friedens 1
Fun@@ 1
Further 1
Future 1
Fuß@@ 1
För@@ 1
Fü@@ 1
Fülle 1
Füßen 1
GB 1
Gar@@ 1
Garantie 1
Garden 1
Geben 1
Gebrauch 1
Geburts@@ 1
Gebäuden 1
Gebühren 1
Gefahren 1
Gehen 1
Geld 1
Geld@@ 1
Geltung 1
Gemeinschaft 1
Gemü@@ 1
Generationen 1
Generi@@ 1
Gerade 1
Gerichte 1
Geschm@@ 1
Geschmack 1
Gesellschaft 1
Gesellschaften 1
Gesellschafts@@ 1
Gespräch 1
Gesundheits@@ 1
Gew@@ 1
Gewinn 1
Gi@@ 1
Gibt 1
Glei@@ 1
GmbH 1
Golfplatz 1
Gon@@ 1
Grafik@@ 1
Grand 1
Gre@@ 1
Great 1
Grenze 1
Grenzen 1
Grill 1
Group 1
Grunde 1
Grundlage 1
Gruppen@@ 1
Grün@@ 1
Gründer 1
Grüne 1
Gu@@ 1
Guests 1
Gute 1
Gä@@ 1
Hab@@ 1
Haben 1
Hack@@ 1
Haf@@ 1
Haftung 1
Hal@@ 1
Ham@@ 1
Han@@ 1
Hand@@ 1
Happ@@ 1
Hard@@ 1
Hau@@ 1
Haup@@ 1
Haupts@@ 1
Hauptziel 1
Haus@@ 1
Hause 1
Hav@@ 1
Help 1
Her@@ 1
Herangehensweise 1
Heraus@@ 1
Herstell@@ 1
Herz@@ 1
Hil@@ 1
Hin@@ 1
Hinblick 1
Hintergrund@@ 1
Hinweise 1
Hir@@ 1
Histor@@ 1
Hochzeits@@ 1
Hoffnung 1
Hohe 1
Hohen 1
Hom@@ 1
Home 1
Hung@@ 1
Hungarian 1
Hunger 1
Hälfte 1
Häufi@@ 1
Hö@@ 1
Hör@@ 1
ING 1
IT@@ 1
Indem 1
Indi@@ 1
Industry 1
Information@@ 1
Informations- 1
Infos 1
Infra@@ 1
Inhaber 1
Inhalten 1
Initiativen 1
Innenhof 1
Innenstadt 1
Innovation 1
Inseln 1
Insofern 1
Installation 1
Installations@@ 1
Institute 1
Institution 1
Institutionen 1
Integration 1
Internationalen 1
Internet@@ 1
Internetseite 1
Interview 1
Ir@@ 1
Irish 1
Isch@@ 1
Israels 1
Itali@@ 1
Italien 1
Italienisch 1
Jahres@@ 1
Jahrhunderte 1
Jahrhunderten 1
Jahrzehnte 1
James 1
Jan 1
Je@@ 1
Jobs 1
Juden 1
Jugend 1
July 1
Jun@@ 1
June 1
Juni 1
Jury 1
Just 1
Jür@@ 1
Ka@@ 1
Kanz@@ 1
Kat@@ 1
Katalog 1
Kein 1
Keine 1
Kenntnis 1
Key 1
Kilometer 1
Kind 1
Kind@@ 1
Kirchen 1
Kit@@ 1
Kleidung 1
Klick 1
Klimaanlage 1
Koalition 1
Kohle 1
Kommentare 1
Kommun@@ 1
Kommunikation@@ 1
Kompati@@ 1
Komple@@ 1
Komponente 1
Komponenten 1
Kompromisse 1
Konsum@@ 1
Kontakt 1
Kontext 1
Kontroll@@ 1
Konzern 1
Kor@@ 1
Kosten 1
Kr@@ 1
Krankenhaus 1
Kreativ@@ 1
Kriege 1
Kriegs@@ 1
Krise 1
Krisen@@ 1
Kultur 1
Kurz 1
Käse 1
König 1
König@@ 1
Küche 1
Kür@@ 1
Küsten@@ 1
LL@@ 1
LO@@ 1
Lad@@ 1
Laden 1
Lag@@ 1
Lager 1
Lan@@ 1
Lande 1
Lang@@ 1
Laufe 1
Laut 1
Layer 1
Leben@@ 1
Lebens@@ 1
Leer@@ 1
Lehre 1
Leiden 1
Leistungen 1
Leistungs@@ 1
Lesen 1
License 1
Liebe 1
Lieblings@@ 1
Light 1
Like 1
Linie 1
Linien 1
Linien@@ 1
Link@@ 1
Liqui@@ 1
Listen 1
Logos 1
Luf@@ 1
Luft@@ 1
Lust 1
Lü@@ 1
MS 1
MS@@ 1
Magazin 1
Mah@@ 1
Mai 1
Mal@@ 1
Man@@ 1
Manchmal 1
Mand@@ 1
Mani@@ 1
Mann 1
Marbella 1
Mari@@ 1
Marken 1
Markt 1
Material@@ 1
Mauer 1
Maustaste 1
Mediterranean 1
Meerblick 1
Meeting 1
Mehr@@ 1
Mehrwert 1
Meinung 1
Meldung 1
Member 1
Members 1
Men@@ 1
Menschheit 1
Menü@@ 1
Menüs 1
Mer@@ 1
Messung 1
Meter 1
Methoden 1
Mich@@ 1
Mie@@ 1
Miet@@ 1
Mig@@ 1
Migrations@@ 1
Mil@@ 1
Milch 1
Milch@@ 1
Mili@@ 1
Milli@@ 1
Mini@@ 1
Mir 1
Mitglied@@ 1
Mitt@@ 1
Mittagessen 1
Mitteilungen 1
Mittel- 1
Mittel@@ 1
Mittelmeer 1
Mobilität 1
Modell@@ 1
Moderne 1
Monat 1
Mono@@ 1
Mor@@ 1
Much 1
Mun@@ 1
Musik 1
Muss 1
Mutter 1
Muttersprache 1
MySQL 1
Märkte 1
Möglichkeiten 1
NG@@ 1
Nachfolger 1
Nachweis 1
Nah@@ 1
Nahrung 1
Nas@@ 1
Nation 1
Natur 1
Natürlich 1
Ne@@ 1
Near 1
Nehmen 1
Nep@@ 1
Net 1
Netze 1
Netzwerk@@ 1
Neu 1
Neue 1
Neuen 1
Neuerungen 1
Neuigkeiten 1
New@@ 1
News 1
News@@ 1
Nich@@ 1
Nichts 1
Nieder@@ 1
Niemand 1
Non@@ 1
Norden 1
Norm@@ 1
Normalerweise 1
North 1
Nr. 1
Nutzer 1
ODER 1
OL@@ 1
OP 1
Ob 1
Ob@@ 1
Oberfläche 1
Objek@@ 1
Ocean 1
October 1
Official 1
Oktober 1
Opfer 1
Option 1
Organisation 1
Original 1
Ost@@ 1
Over 1
Ozean 1
PCs 1
PD@@ 1
PH@@ 1
Pack@@ 1
Page 1
Pakete 1
Palma 1
Papier 1
Paradies 1
Parameter 1
Passwort 1
Past@@ 1
Pen@@ 1
People 1
Personal 1
Personen@@ 1
Perspektive 1
Peter 1
Pflan@@ 1
Pflichten 1
Pho@@ 1
Phone 1
Physi@@ 1
Pi@@ 1
Pl@@ 1
Pla@@ 1
Plan 1
Planung 1
Plattformen 1
Plug 1
Plätzen 1
Pod@@ 1
Poker@@ 1
Poli@@ 1
Por@@ 1
Potenzial 1
Praxis 1
Preis@@ 1
Pressemit@@ 1
Prim@@ 1
Prin@@ 1
Print 1
Privacy 1
Problems 1
Produk@@ 1
Produkt@@ 1
Produkten 1
Produkts 1
Profession@@ 1
Profil 1
Program 1
Program@@ 1
Programm@@ 1
Programmier@@ 1
Programms 1
Projekt@@ 1
Projekts 1
Proto@@ 1
Protocol 1
Protok@@ 1
Provin@@ 1
Province 1
Prozess 1
Prä@@ 1
Publi@@ 1
Quality 1
Qualität 1
Quell@@ 1
Quick@@ 1
RC 1
RO 1
Rad@@ 1
Radi@@ 1
Rahmens 1
Read 1
Real 1
Realität 1
Rec@@ 1
Recently 1
Rechts 1
Rechtsan@@ 1
Reden 1
Regierungen 1
Regional 1
Register 1
Reicht@@ 1
Reihen@@ 1
Reise@@ 1
Reisen 1
Reisende 1
Rel@@ 1
Ren@@ 1
Repar@@ 1
Reparatur 1
Republic 1
Reserv@@ 1
Reservi@@ 1
Reservierungen 1
Retur@@ 1
Richter 1
Richtlinien 1
Richtung 1
Risiken 1
Roh@@ 1
Rom 1
Rome 1
Rooms 1
Route 1
Rubrik 1
Ruinen 1
Run@@ 1
Rural 1
SI@@ 1
ST@@ 1
Sa@@ 1
Sach@@ 1
Saison 1
Salz@@ 1
Samm@@ 1
Schaff@@ 1
Schalt@@ 1
Schau@@ 1
Schiffe 1
Schil@@ 1
Schließlich 1
Schloss 1
Schn@@ 1
Schnee 1
Schnit@@ 1
Schnittstelle 1
Schrift 1
Schrift@@ 1
Schritt 1
Schulden 1
Schule 1
Schulen 1
Schwe@@ 1
Schweizer 1
Schü@@ 1
Search 1
Seen 1
Seien 1
Sein 1
Seiten@@ 1
Sel@@ 1
Sem@@ 1
Sen@@ 1
Senior 1
September 1
Serie 1
Servern 1
Set 1
Set@@ 1
Sever@@ 1
Several 1
Sh@@ 1
Shows 1
Sicherheit@@ 1
Sign@@ 1
Sind 1
Sir@@ 1
Sites 1
Situated 1
Ski 1
Slides@@ 1
Smart 1
Snow@@ 1
Sobald 1
Soci@@ 1
Somm@@ 1
Sommer@@ 1
Sonder@@ 1
Source 1
Sozial@@ 1
Spa 1
Spam 1
Spar@@ 1
Speci@@ 1
Speed 1
Speicher@@ 1
Speise@@ 1
Spezi@@ 1
Spiel@@ 1
Spielen 1
Spit@@ 1
Sport 1
Sport@@ 1
Spra@@ 1
Sprachen 1
Spre@@ 1
Spuren 1
Stad@@ 1
Stadium 1
Stadt@@ 1
Stadtzentrum 1
Standards 1
Standort 1
Star@@ 1
Start 1
Stat@@ 1
State 1
States 1
Stell@@ 1
Stephen 1
Stern@@ 1
Sterne 1
Steve 1
Stil@@ 1
Stock@@ 1
Stop 1
Store 1
Straf@@ 1
Strafen 1
Streit@@ 1
Stri@@ 1
Strände 1
Stu@@ 1
Studien 1
Stunde 1
Stunden 1
Städten 1
Such 1
Sup@@ 1
Super@@ 1
Swe@@ 1
Sweden 1
Sym@@ 1
Symbol 1
Süden 1
TU@@ 1
TV@@ 1
Ta@@ 1
Tab@@ 1
Tag@@ 1
Tar@@ 1
Taste 1
Taten 1
Tau@@ 1
Tauchen 1
Taxi 1
Te@@ 1
Teams 1
Technologien 1
Tee 1
Tei@@ 1
Teilnehmer 1
Tenn@@ 1
Terrasse 1
Text 1
Text@@ 1
Their 1
Themen 1
Then 1
Three 1
Through 1
Thus 1
Ti@@ 1
Tier@@ 1
Tisch@@ 1
Todes@@ 1
Tool 1
Toten 1
Tour 1
Tr@@ 1
Tradi@@ 1
Tran@@ 1
Trans@@ 1
Transpar@@ 1
Transport 1
Trend 1
Tro@@ 1
Tunes 1
Tur@@ 1
Turin 1
Turkish 1
Tut@@ 1
Type 1
U.S. 1
U@@ 1
UR@@ 1
Ufer 1
Ul@@ 1
Umfrage 1
Umstellung 1
Umständen 1
Umwelt- 1
Unabhängi@@ 1
Ungarn 1
Uni@@ 1
Unsere 1
Unterhaltung 1
Unterhaltungs@@ 1
Unterkunft 1
Unterlagen 1
Unternehm@@ 1
Unterschiede 1
Urheber@@ 1
Urlau@@ 1
Urlaubs@@ 1
Urteil 1
VI 1
Valencia 1
Vari@@ 1
Variante 1
Various 1
Veranstaltung 1
Verantwortung 1
Verb@@ 1
Verbesserungen 1
Verbin@@ 1
Verfahrens 1
Verfassung 1
Verfügung 1
Vergangenheit 1
Verkehrs@@ 1
Verkehrsmittel 1
Verkehrsmitteln 1
Verlauf 1
Vermeidung 1
Verordnungen 1
Versand@@ 1
Versch@@ 1
Verschiedene 1
Verschlüssel@@ 1
Verständnis 1
Versuch@@ 1
Vertrauens 1
Vertretung 1
Vertrieb 1
Verwaltung 1
Verwen@@ 1
Very 1
Verzeichnis 1
Vie@@ 1
Villen 1
Vo@@ 1
Vol@@ 1
Vom 1
Vor 1
Voraus@@ 1
Voraussetzung 1
Vordergrund 1
Vorgän@@ 1
Vorstellung 1
Vorstellungen 1
WC 1
Wachstum 1
Wall 1
Wandel 1
War 1
Waren 1
Wartungs@@ 1
Webseiten 1
Wege 1
Wein 1
Wein@@ 1
Weinen 1
Weiter 1
Weiter@@ 1
Weiterentwicklung 1
Well 1
Weltkrieg@@ 1
Wen@@ 1
Werbe@@ 1
Werkzeuge 1
Wesen 1
Wetter 1
While 1
Who 1
Why 1
Wider@@ 1
Wie@@ 1
Wiedergabe 1
Wiederherstellung 1
Wiener 1
Wild@@ 1
Wind 1
Wir@@ 1
Wirk@@ 1
Wirtschaft 1
Wissen 1
Wissenschaftler 1
Wochen 1
Wochenende 1
Woh@@ 1
Working 1
Wortes 1
Would 1
Wunder 1
Wunsch 1
Während 1
YO@@ 1
Yahoo 1
Year 1
Yet 1
Z 1
Zah@@ 1
Zahlungen 1
Zar@@ 1
Zeich@@ 1
Zeilen 1
Zeitraum 1
Zeitschrift 1
Zimmer@@ 1
Zugang 1
Zur 1
Zusammenarbeit 1
Zusammenfassung 1
Zusammenhang 1
Zusammensetzung 1
Zustimmung 1
Zwecke 1
Zwei@@ 1
Zweiten 1
Zäh@@ 1
a.m 1
abhängig 1
abilities 1
ables 1
abo@@ 1
abroad 1
absch@@ 1
abschließen 1
absichti@@ 1
absolutely 1
abund@@ 1
abwechslungs@@ 1
abzu@@ 1
academic 1
accept 1
accepted 1
accessories 1
accom@@ 1
accuracy 1
accused 1
ache 1
achieve 1
achieved 1
aci@@ 1
acies 1
acious 1
acknowledge 1
acquired 1
acquisition 1
activate 1
activated 1
added 1
addi@@ 1
adding 1
adds 1
ader 1
ades 1
adhere 1
adi@@ 1
adjustment 1
advan@@ 1
advance 1
advantage 1
advice 1
advise 1
advisory 1
affen 1
affili@@ 1
afterwards 1
agreeing 1
agreements 1
ahn 1
aj@@ 1
aked 1
akte 1
akten 1
aktive 1
aktivieren 1
akzeptieren 1
album 1
algorith@@ 1
alisierungen 1
alisten 1
alists 1
alities 1
ality 1
alität 1
allererst 1
allgemeine 1
allgemeinen 1
alli@@ 1
allowed 1
alogues 1
alongside 1
alous 1
alt@@ 1
alter 1
alter@@ 1
although 1
altogether 1
altung 1
ambience 1
amen@@ 1
ament@@ 1
ammern 1
amongst 1
ample 1
ana 1
analy@@ 1
analysis 1
anbieten 1
ances 1
ancest@@ 1
ancient 1
anda 1
ande 1
ander@@ 1
andernfalls 1
anding 1
anerkannt 1
anfangen 1
ang@@ 1
angebracht 1
angegeben 1
angekommen 1
angel 1
angemessene 1
angen@@ 1
angrenz@@ 1
anim@@ 1
animal 1
animals 1
anische 1
anischen 1
ankommen 1
ann@@ 1
anne 1
annehmen 1
anpassen 1
anschauen 1
anschließen 1
anspruchsvolle 1
answer@@ 1
answered 1
answers 1
anticip@@ 1
antly 1
anxi@@ 1
any@@ 1
anyone 1
anywhere 1
anz@@ 1
anzusehen 1
ap 1
apart 1
app@@ 1
appen 1
applicable 1
applied 1
applies 1
apply 1
appropriate 1
arbeit 1
arbeitet 1
arbit@@ 1
arbitr@@ 1
arch 1
archit@@ 1
architecture 1
architek@@ 1
architekton@@ 1
archive 1
archives 1
ard 1
aria 1
arily 1
arischen 1
arms 1
arten 1
artige 1
artiges 1
artistic 1
artists 1
ase 1
asking 1
asp@@ 1
aspect 1
aspects 1
aspi@@ 1
asse 1
assist 1
associ@@ 1
associate 1
associations 1
assozi@@ 1
assume 1
assumed 1
asty 1
asur 1
ategorie 1
atics 1
ating 1
ationale 1
ations@@ 1
ativ 1
ativen 1
atives 1
atoes 1
atoren 1
atri@@ 1
ats@@ 1
att 1
att@@ 1
attack 1
attraction 1
ature 1
atz 1
aufbauen 1
aufer@@ 1
aufgebaut 1
aufgehoben 1
aufgenommen 1
aufnehmen 1
aufrichtig 1
aufrufen 1
auftreten 1
aufzu@@ 1
auseinander@@ 1
ausführ@@ 1
ausführlich 1
ausgehend 1
ausgesetzt 1
ausgezeichn@@ 1
ausgezeichnet 1
ausschließlich 1
ausser@@ 1
aussieht 1
austau@@ 1
auth@@ 1
authorized 1
automatischen 1
außer@@ 1
außerordentlich 1
availability 1
ave 1
aviation 1
aw@@ 1
award 1
ay@@ 1
back@@ 1
backs 1
bad 1
bahnen 1
bahnhof 1
balance 1
band 1
bare 1
barer 1
bares 1
bat 1
bat@@ 1
bath 1
batt@@ 1
bau@@ 1
baute 1
bay 1
bearbeiten 1
bearbeitet 1
beat 1
beauty 1
bec@@ 1
bedacht 1
bedeutende 1
bedeutet 1
bedienen 1
beeindruck@@ 1
befin@@ 1
begab 1
begeistern 1
beginners 1
begins 1
begun 1
begünsti@@ 1
begünstigt 1
behalf 1
behind 1
behör 1
beides 1
bein@@ 1
beings 1
beispielsweise 1
bek@@ 1
bekannten 1
bekannter 1
bekanntesten 1
bekanntlich 1
belastet 1
belieb@@ 1
beliebi@@ 1
beliebige 1
beliebigen 1
beliebten 1
belief 1
beloh@@ 1
belon@@ 1
belongs 1
belä@@ 1
bene@@ 1
beneficial 1
benefits 1
benennen 1
benutzt 1
benötigen 1
benötigt 1
bequ@@ 1
bequem 1
berechnen 1
berge 1
beruf@@ 1
berücksichtigt 1
bes@@ 1
beschränkt 1
besei@@ 1
beseitigen 1
besseren 1
besteht 1
bestellt 1
besten 1
bester 1
bestimmter 1
bestimmungen 1
besu@@ 1
besuchen 1
betra@@ 1
betreffen 1
betreffende 1
betrieb 1
betrieb@@ 1
betrieben 1
beträchtlichen 1
beträgt 1
bettzimmer 1
bewahren 1
beweisen 1
bewer@@ 1
bewertung 1
bewirken 1
bewirkt 1
bey 1
bezieh@@ 1
bezüglich 1
bieten 1
bietern 1
bige 1
bilden 1
bility 1
bilität 1
billion 1
binsel 1
birds 1
birgt 1
bisher 1
bislang 1
bisschen 1
black 1
blen 1
blich 1
bliche 1
blicken 1
blo@@ 1
blocks 1
bloo@@ 1
blood 1
blä@@ 1
boar@@ 1
boarding 1
boasts 1
boat 1
bodies 1
bon@@ 1
bonus 1
booked 1
border 1
borro@@ 1
bottom 1
bou@@ 1
br@@ 1
bra@@ 1
brasili@@ 1
brau@@ 1
brauch@@ 1
brauchen 1
brea@@ 1
bread 1
break 1
breath 1
breath@@ 1
bri@@ 1
broadband 1
broken 1
bruch 1
bt 1
builds 1
built 1
bums 1
bungen 1
bus 1
busy 1
buted 1
ca. 1
cabin 1
cafes 1
cake 1
cancel 1
capabilities 1
capable 1
car 1
careful 1
carried 1
carriers 1
carry 1
cash 1
casting 1
castle 1
cat@@ 1
catalogue 1
catch 1
categories 1
category 1
cattle 1
caused 1
causing 1
cc 1
ce@@ 1
celebrated 1
celebration 1
cell@@ 1
cent 1
central 1
centrally 1
centres 1
centuries 1
chair@@ 1
champ@@ 1
change 1
chapter 1
characters 1
charak@@ 1
charts 1
chat 1
check@@ 1
checking 1
cheese 1
child 1
child@@ 1
childhood 1
chinesische 1
chinesischen 1
chose 1
chs 1
cht@@ 1
chter 1
chtete 1
chts@@ 1
church 1
churches 1
cial 1
cil 1
citizens 1
cke 1
cked 1
cket 1
cks@@ 1
cky 1
claim 1
claimed 1
classic 1
classification 1
cle 1
clean 1
clients 1
climate 1
clin@@ 1
closed 1
closer 1
closing 1
clothing 1
club 1
clubs 1
coalition 1
coastline 1
code 1
coding 1
collect 1
collecting 1
colonial 1
colours 1
cols 1
columns 1
combination 1
combining 1
communicate 1
compar@@ 1
compatibility 1
completed 1
complex 1
complexity 1
compli@@ 1
compliance 1
complicated 1
compo@@ 1
components 1
con 1
concluded 1
conditional 1
conduct 1
conferences 1
config@@ 1
confirm 1
confirmation 1
confirmed 1
conjunction 1
connec@@ 1
cons 1
consensus 1
considerations 1
considered 1
consistency 1
consistently 1
consisting 1
consists 1
constantly 1
consul@@ 1
consumer 1
cont@@ 1
contact 1
contex@@ 1
context 1
continue 1
continued 1
continuous 1
contrac@@ 1
contrary 1
contri@@ 1
controlling 1
conve@@ 1
convention 1
convert 1
convinced 1
copy 1
copy@@ 1
cor@@ 1
core 1
corners 1
corporations 1
correspon@@ 1
corruption 1
cost@@ 1
costs 1
couldn 1
counted 1
counter@@ 1
counters 1
countless 1
cozy 1
cr@@ 1
cra@@ 1
cream 1
creates 1
critical 1
cros@@ 1
crow@@ 1
cru@@ 1
crystal 1
ctions 1
cu@@ 1
culture 1
curi@@ 1
curious 1
customers 1
cuts 1
d.h. 1
dafri@@ 1
dahingehend 1
dalitäten 1
damaged 1
dance 1
dangers 1
daraufhin 1
darin 1
darstellt 1
dation 1
dauern 1
dauert 1
day@@ 1
dea@@ 1
dealing 1
deb@@ 1
debt 1
decades 1
decided 1
decision 1
decisions 1
deck 1
decken 1
deep 1
defects 1
defining 1
definitely 1
dein 1
del@@ 1
deleted 1
delic@@ 1
deliver 1
delivering 1
delivery 1
demand 1
demo@@ 1
demonstrate 1
demselben 1
dep@@ 1
departure 1
depth 1
derart 1
dered 1
dership 1
describes 1
description 1
designated 1
designs 1
desirable 1
desire 1
desired 1
desktop 1
dest 1
desto 1
destroy 1
destroyed 1
destroying 1
deswegen 1
detected 1
deut@@ 1
deutlicher 1
deutschen 1
develop 1
developer 1
devi@@ 1
devoted 1
dez 1
dienste 1
diert 1
differently 1
differenzi@@ 1
difficult 1
diger 1
digitale 1
digte 1
digungen 1
directors 1
direkte 1
dische 1
dischen 1
discount 1
discover 1
discovered 1
dish 1
dishes 1
disp@@ 1
displa@@ 1
display 1
displays 1
distance 1
distinguished 1
distribut@@ 1
distur@@ 1
dive 1
divi@@ 1
do@@ 1
doctr@@ 1
documented 1
doesn 1
dokum@@ 1
dokumentiert 1
dollars 1
doppel@@ 1
dorthin 1
dow 1
downloads 1
dr@@ 1
draft 1
draw@@ 1
dreht 1
dress 1
drew 1
dri@@ 1
drink 1
dritten 1
druck@@ 1
drücken 1
du@@ 1
duction 1
dum@@ 1
dung 1
dunk@@ 1
durchaus 1
durchführen 1
durchgeführt 1
durchschnittliche 1
durchzuführen 1
dün@@ 1
e. 1
ear@@ 1
earlier 1
easily 1
eating 1
eben 1
ebenen 1
ebenfalls 1
ebo@@ 1
ebt 1
ec@@ 1
ech@@ 1
echt 1
eck 1
ecker 1
ecks 1
eckt 1
ection 1
ective 1
ector 1
edges 1
edi@@ 1
ee 1
ees 1
effect 1
effektive 1
egen 1
ego 1
ehe 1
ehen 1
eher 1
ehm@@ 1
ehnt 1
eich@@ 1
einf@@ 1
eingebettet 1
eingebracht 1
eingeführt 1
einger@@ 1
eingeschränkt 1
eingesetzt 1
eingesetzten 1
einheitliches 1
einher@@ 1
einigt 1
einrichten 1
einschließlich 1
einsehen 1
einsetzen 1
einst 1
einzel@@ 1
einzelne 1
einzelnen 1
einzigartigen 1
einzige 1
eit 1
ek 1
eld 1
ele 1
electronic 1
elektron@@ 1
eliminate 1
elled 1
ellen 1
ellen@@ 1
eller 1
elles 1
elligkeit 1
ells 1
elt 1
ema 1
emails 1
emandem 1
emen 1
emotions 1
empf@@ 1
empfehlen 1
empfiehlt 1
empfängt 1
enabling 1
ences 1
encomp@@ 1
encountered 1
encryption 1
ende@@ 1
ended 1
ender 1
endes 1
endet 1
endete 1
ending 1
endorsed 1
endste 1
endung 1
ened 1
enemies 1
eness 1
eng 1
eng@@ 1
engaged 1
engen 1
engines 1
enhan@@ 1
enhanced 1
eni@@ 1
enjoying 1
enjoyment 1
enough 1
ensu@@ 1
ensuring 1
ensystem 1
entered 1
entering 1
enters 1
entfer@@ 1
enth 1
entic@@ 1
enting 1
entirely 1
entliche 1
entnehmen 1
entrance 1
entries 1
entry 1
ents 1
entschieden 1
entsprechenden 1
entsprechender 1
entsteht 1
entworfen 1
environment 1
environmental 1
enz@@ 1
enzeit 1
enzen 1
eo 1
ep 1
equi@@ 1
equity 1
erInnen 1
era 1
erbar 1
erbaut 1
erend 1
erfol@@ 1
erfolgen 1
erfordert 1
erg@@ 1
ergänzt 1
erheblich 1
erhoben 1
erholsamen 1
erhält 1
eri@@ 1
eries 1
erin 1
erinnert 1
erisch 1
erischen 1
erkannt 1
erkenn@@ 1
erkennbar 1
erkennen 1
erkennt 1
erklärung 1
erland 1
erlassen 1
erledigt 1
erlei 1
erleichtert 1
erläutert 1
ermittelt 1
ermöglichen 1
ernähr@@ 1
err@@ 1
erreichbar 1
erschienen 1
erschwert 1
ersetzt 1
erst 1
erstmals 1
erter 1
erungen 1
erw@@ 1
erwarten 1
erweitert 1
erwerben 1
erwiesen 1
erwähnen 1
erwähnt 1
eröffnet 1
escal@@ 1
ese 1
eses 1
esische 1
essential 1
establish 1
establishment 1
estate 1
eta 1
eten 1
eties 1
ety 1
etze 1
etzen 1
eu 1
europas 1
eventu@@ 1
everyone 1
examine 1
exc@@ 1
exceptional 1
exceptions 1
exclusive 1
executed 1
exemplary 1
exerc@@ 1
exercise 1
exercised 1
exhau@@ 1
exi@@ 1
exp@@ 1
expan@@ 1
expansion 1
expect 1
experienced 1
experim@@ 1
experiments 1
explanation 1
exportieren 1
exportiert 1
exports 1
express 1
expression 1
exquisite 1
extent 1
extract 1
extrem 1
extreme 1
fach 1
fachen 1
facing 1
fact 1
fahrer 1
fahrt 1
fahrten 1
fail 1
fak@@ 1
fam@@ 1
familiar 1
fang 1
fangen 1
fantastic 1
fantastischen 1
fat 1
fat@@ 1
fathers 1
favor 1
feeds 1
feet 1
fehlenden 1
fehler 1
fei@@ 1
fen@@ 1
fenster 1
fer 1
fern 1
fes@@ 1
festgelegt 1
festhalten 1
festival 1
festzustellen 1
fet@@ 1
feu@@ 1
ffene 1
fiehlt 1
fight 1
figu@@ 1
fill 1
filled 1
film 1
filters 1
final 1
findung 1
fing 1
finger 1
finished 1
fire@@ 1
fish 1
fit@@ 1
fitting 1
fixes 1
flag 1
flag@@ 1
flat@@ 1
flexiblen 1
flexibler 1
fliehen 1
flo@@ 1
floors 1
flow 1
flus@@ 1
fluss 1
flying 1
flächen 1
flü@@ 1
focus 1
focuses 1
folgen@@ 1
folgt 1
foli@@ 1
fore@@ 1
foreigners 1
foreseen 1
forget 1
formen 1
forms 1
forschung 1
fort@@ 1
forums 1
founder 1
founding 1
fr@@ 1
fragen 1
frame 1
frames 1
französischen 1
fre@@ 1
freedoms 1
freely 1
frei@@ 1
freiem 1
freigegeben 1
freiheit 1
freiheiten 1
fremden 1
frequent 1
fresh 1
freu@@ 1
fried 1
friend 1
friendly 1
friends 1
frist 1
froh 1
frucht@@ 1
fruitful 1
fruits 1
frühen 1
früher 1
fuhr 1
fuhren 1
functional 1
functions 1
fund 1
funden 1
funding 1
funds 1
fur@@ 1
furnis@@ 1
fy 1
fähig 1
fähige 1
fällt 1
fän@@ 1
fördern 1
förmi@@ 1
fügen 1
fügt 1
führt 1
führung 1
füll@@ 1
füllung 1
fün@@ 1
fünf 1
gabe 1
gain 1
gaining 1
gal@@ 1
gallery 1
gambling 1
gan@@ 1
gangen 1
garanti@@ 1
garantiert 1
gastronom@@ 1
gearbeitet 1
gebau@@ 1
gebieten 1
gebil@@ 1
gebir@@ 1
gebrau@@ 1
geeignet 1
gef@@ 1
gefangen 1
gefolgt 1
gefällt 1
gegeben@@ 1
gegen@@ 1
gehalten 1
gehe 1
gehören 1
gehöri@@ 1
gehörige 1
gehörten 1
gei@@ 1
geistige 1
gekehrt 1
gelag@@ 1
gelan@@ 1
gelangt 1
geld 1
gelegen 1
gelegene 1
geleistet 1
gelten 1
gely 1
gelöscht 1
gem 1
genden 1
genen 1
gener 1
generate 1
generated 1
generations 1
geniessen 1
genug 1
genügend 1
gerade 1
gere@@ 1
gerechtfertigt 1
gering@@ 1
geringeren 1
german 1
gerät 1
geräten 1
gesamten 1
geschichte 1
geschlagen 1
geschlossen 1
geschwindigkeit 1
geschäf@@ 1
geschütz@@ 1
geschützt 1
gesetz@@ 1
gesetzlich 1
gestaltung 1
gestartet 1
gesti@@ 1
gesucht 1
get@@ 1
getestet 1
getrennt 1
gewidmet 1
gewinnt 1
gewissen 1
gewähren 1
gewünschte 1
geändert 1
gg@@ 1
gging 1
ghout 1
ghter 1
gift 1
gigan@@ 1
gige 1
gigen 1
gingen 1
gir@@ 1
gl 1
gla@@ 1
glass 1
glaube 1
gleich 1
gleich@@ 1
gleichnam@@ 1
gleicht 1
gleichzeitig 1
glich@@ 1
glichkeiten 1
global 1
globale 1
globalen 1
gn 1
gnet 1
goal 1
gol@@ 1
gone 1
goods 1
government 1
governmental 1
grades 1
gran@@ 1
grand@@ 1
graphic 1
graphical 1
grave 1
gre@@ 1
great@@ 1
greif@@ 1
gress 1
grew 1
grie@@ 1
griff 1
griffe 1
gro@@ 1
gross@@ 1
grossen 1
group@@ 1
groups 1
grow 1
groß@@ 1
großartige 1
großartigen 1
grund 1
grundlegende 1
gruppe 1
grös@@ 1
größeren 1
größeres 1
gs@@ 1
gtes 1
gu@@ 1
gues 1
gänge 1
gü@@ 1
günstig 1
haber 1
haft 1
haften 1
half 1
halt 1
halts@@ 1
handy 1
har@@ 1
hardware 1
harm 1
harmonisation 1
hart 1
haupts@@ 1
hauptstadt 1
health 1
heard 1
hearing 1
heat 1
heimischen 1
heits@@ 1
heißen 1
heißt 1
hellen 1
herange@@ 1
herausgestellt 1
herausragende 1
herauszufinden 1
herbeizuführen 1
hereby 1
heritage 1
herr@@ 1
herunter@@ 1
hervor 1
hervorra@@ 1
herzlichen 1
heutige 1
heutigen 1
hidden 1
hierher 1
hierzu 1
high@@ 1
higher 1
hilfreich 1
hinaus@@ 1
hinweg 1
hinzu@@ 1
hinzugefügt 1
hire 1
hne 1
hoben 1
hoc 1
hof 1
hohe 1
hohem 1
holen 1
hope 1
hor@@ 1
horizon@@ 1
hospital 1
hostel 1
hosts 1
hot 1
hotel@@ 1
hotels 1
house 1
however 1
hr 1
ht@@ 1
htt@@ 1
huge 1
humili@@ 1
hung 1
hunger 1
hä@@ 1
hält 1
hän@@ 1
hängen 1
hängt 1
här@@ 1
häu@@ 1
häufig 1
häufigsten 1
höre 1
hü@@ 1
i.e. 1
iPhone 1
ices 1
ichte 1
ici@@ 1
icons 1
idea 1
ideale 1
ideas 1
iel 1
ien@@ 1
ier@@ 1
ierte 1
ierungs@@ 1
ige 1
igen 1
igung 1
ik@@ 1
il@@ 1
iles 1
ili@@ 1
ill@@ 1
importance 1
imported 1
imports 1
impossible 1
impro@@ 1
improves 1
imstande 1
inations 1
inau@@ 1
ince 1
incomplete 1
incor@@ 1
incorporated 1
increased 1
incredible 1
ind 1
independently 1
indicating 1
indicator 1
indischen 1
individuellen 1
industrial 1
industrie 1
industrielle 1
industry 1
iners 1
influ@@ 1
influential 1
info 1
inform@@ 1
informieren 1
inge 1
ingt 1
ining 1
initi@@ 1
initially 1
initiatives 1
inn 1
inn@@ 1
inno@@ 1
innovation 1
input 1
insel 1
insert 1
insight 1
installation 1
instant 1
institutions 1
instruc@@ 1
insurance 1
integrierten 1
inten@@ 1
intend 1
intensiv 1
interaction 1
interactive 1
interessen 1
interested 1
interests 1
internation@@ 1
internationale 1
internationaler 1
interne 1
internet 1
interpretation 1
introduced 1
investieren 1
invited 1
inzwischen 1
ionship 1
ire 1
irgendwo 1
isch@@ 1
ischem 1
ischer 1
isches 1
ischten 1
ish@@ 1
isierung 1
ising 1
isn 1
ison 1
isons 1
issue 1
italienische 1
iten 1
iti@@ 1
ition 1
itä@@ 1
itäts@@ 1
izi@@ 1
izing 1
jahre@@ 1
je@@ 1
jects 1
jek@@ 1
jemals 1
jet@@ 1
job 1
jobs 1
join 1
joint 1
judge 1
judged 1
judgment 1
jun@@ 1
jury 1
justice 1
justified 1
jü@@ 1
jüngste 1
ka 1
ka@@ 1
kaner 1
karte 1
kaufen 1
keeps 1
kehrt 1
keineswegs 1
keits@@ 1
kel 1
keln 1
kenn@@ 1
ker 1
kern 1
kes 1
kette 1
kg 1
kin 1
klaren 1
kleines 1
kleinsten 1
klick 1
kn@@ 1
kni@@ 1
kol@@ 1
komfortabel 1
kommende 1
kommerzi@@ 1
kommerziellen 1
kommunikation 1
komple@@ 1
kon@@ 1
konnten 1
konstru@@ 1
kontroll@@ 1
konver@@ 1
kopieren 1
kor@@ 1
korrigi@@ 1
kosten 1
kostenfrei 1
kostenlos 1
kraft 1
kraft@@ 1
kre@@ 1
kreu@@ 1
kriterien 1
ku@@ 1
kultur 1
kunden 1
kunft@@ 1
kung 1
kämpfen 1
kün@@ 1
künfte 1
künftig 1
künftigen 1
kürz@@ 1
kürzlich 1
labor 1
lacking 1
lage 1
laid 1
lam@@ 1
landscape 1
landschaft 1
lang 1
langer 1
langsam 1
languages 1
largest 1
las@@ 1
lasse 1
late 1
lauf 1
lauf@@ 1
launch 1
launching 1
lauten 1
lay 1
leading 1
lebens@@ 1
legally 1
legitimate 1
leh@@ 1
lei 1
leich@@ 1
leichter 1
leidet 1
leisch 1
leiste 1
leisten 1
leistet 1
leiter 1
leitung 1
lending 1
leng@@ 1
lenken 1
ler@@ 1
lern 1
lern@@ 1
lers 1
les@@ 1
lesser 1
letting 1
letztendlich 1
letzter 1
letztes 1
library 1
lication 1
licence 1
lichem 1
licherweise 1
lichkeiten 1
licht 1
lichten 1
lie 1
lieb@@ 1
liebe 1
lieben 1
lieber 1
lied 1
liefern 1
lien 1
lierung 1
ließen 1
lift 1
lifted 1
lifting 1
ligen 1
ligh@@ 1
limit 1
limitations 1
liness 1
linge 1
lings@@ 1
linked 1
linken 1
linking 1
liste 1
listen 1
listing 1
lists 1
lit@@ 1
lively 1
lives 1
llas 1
lle 1
lo 1
load 1
loads 1
lobby 1
loc@@ 1
locate 1
lock 1
log@@ 1
login 1
logos 1
logs 1
lohnt 1
lokal 1
lon@@ 1
loo@@ 1
looked 1
loose 1
losen 1
losigkeit 1
loss 1
lossen 1
lots 1
low 1
lower@@ 1
lub 1
lucky 1
lunch 1
lungs@@ 1
luss@@ 1
länder 1
ländern 1
länen 1
länger 1
längere 1
lück@@ 1
m2 1
machte 1
machten 1
mag 1
magne@@ 1
magnificent 1
mah@@ 1
mailing 1
mainly 1
maker 1
makers 1
mal@@ 1
malen 1
mali@@ 1
managed 1
management 1
managing 1
manche 1
mandatory 1
mani@@ 1
manifest@@ 1
manip@@ 1
mankind 1
mann@@ 1
manu@@ 1
mar@@ 1
markt 1
married 1
maschine 1
masters 1
matches 1
materialien 1
maßen 1
maßgeblich 1
mean 1
mean@@ 1
measurements 1
medium 1
mehreren 1
meldung 1
memory 1
menge 1
mentioning 1
menus 1
menü 1
merely 1
merits 1
merk@@ 1
mers 1
messe 1
met 1
meter 1
meters 1
method@@ 1
methoden 1
methods 1
metres 1
midst 1
mie 1
mieten 1
mig@@ 1
mile@@ 1
mill@@ 1
millions 1
min@@ 1
mindestens 1
mini@@ 1
minimum 1
miss 1
missing 1
mitglieder 1
mitted 1
mittels 1
mittelten 1
mitting 1
mittlerweile 1
miß@@ 1
mn@@ 1
mobility 1
mode 1
mol@@ 1
moment 1
moment@@ 1
mon 1
monopolies 1
monuments 1
mood 1
motorway 1
mountain 1
mountains 1
moving 1
mp@@ 1
mu@@ 1
multi@@ 1
multilater@@ 1
multilateral 1
multin@@ 1
multip@@ 1
municipality 1
mur@@ 1
musical 1
mutually 1
mußte 1
mächti@@ 1
mäß@@ 1
mäßige 1
mö@@ 1
mögliche 1
möglichen 1
na 1
nachgewiesen 1
nachzu@@ 1
nah@@ 1
narrow 1
nation 1
national 1
nationalen 1
native 1
natural 1
nature 1
nearly 1
necessarily 1
necessi@@ 1
ned 1
negotiate 1
nehm@@ 1
nehme 1
neighbor@@ 1
nennt 1
neo 1
ner@@ 1
net@@ 1
neuer 1
nie@@ 1
niert 1
night 1
night@@ 1
nightlife 1
ning 1
nings 1
nis 1
nis@@ 1
nochmals 1
noise 1
nor@@ 1
normalen 1
northern 1
notification 1
notify 1
nte 1
nu@@ 1
numerous 1
nummer 1
nutz@@ 1
nötig 1
nützlich 1
nützliche 1
objective 1
objek@@ 1
obwohl 1
odation 1
oes 1
offen@@ 1
offener 1
offer@@ 1
offered 1
offices 1
offizi@@ 1
offiziellen 1
ohl@@ 1
oil 1
ok@@ 1
ologi@@ 1
ologies 1
ology 1
omed 1
omm@@ 1
ommen 1
on@@ 1
onal 1
ond 1
onder@@ 1
onen 1
ones 1
ong 1
onia 1
onien 1
oning 1
onn@@ 1
ont 1
ony 1
oods 1
ope 1
opens 1
oper@@ 1
operating 1
operations 1
operator 1
operators 1
opp@@ 1
opponent 1
opportunity 1
optimal 1
optimieren 1
optimize 1
optional 1
orca 1
organ@@ 1
organe 1
organis@@ 1
organise 1
orientierung 1
origin@@ 1
origins 1
oring 1
orious 1
orts 1
otten 1
ought 1
oul@@ 1
ouldn 1
outdoor 1
outstanding 1
overall 1
ow@@ 1
owned 1
owner 1
owners 1
ownership 1
p.m 1
painting 1
panel 1
panoramic 1
pap@@ 1
paper 1
paradise 1
parameter 1
parks 1
partially 1
participate 1
particular 1
partners 1
pass@@ 1
passed 1
passen 1
password 1
path 1
pdf 1
pe@@ 1
perf@@ 1
perfectly 1
perfek@@ 1
performed 1
period 1
permitted 1
persons 1
persön@@ 1
pflan@@ 1
pfung 1
ph@@ 1
physical 1
pi@@ 1
picked 1
piece 1
pit@@ 1
plan 1
platform 1
platforms 1
platte 1
player 1
pleas@@ 1
pleasant 1
plo@@ 1
points 1
poli@@ 1
policy 1
political 1
politische 1
pool 1
population 1
ported 1
portion 1
pose 1
poss@@ 1
possess 1
posted 1
posten 1
posts 1
pot@@ 1
potenti@@ 1
powered 1
ppe 1
ppen 1
pper 1
practically 1
practice 1
praktische 1
preis 1
premature 1
prepar@@ 1
preparations 1
preparatory 1
preparing 1
presents 1
preserve 1
preserved 1
presidency 1
pression 1
previously 1
prices 1
primi@@ 1
principal 1
printed 1
printer 1
prinzip 1
priori@@ 1
privilege 1
prizes 1
probably 1
problem 1
problematisch 1
proc@@ 1
procedures 1
produced 1
production 1
prof@@ 1
professional 1
profil 1
profiles 1
program@@ 1
programm 1
programming 1
progres@@ 1
progress 1
promising 1
promp@@ 1
propri@@ 1
protect 1
protection 1
protocol 1
proud 1
proved 1
prä@@ 1
präsentieren 1
präsentiert 1
prüft 1
pt 1
publi@@ 1
publicity 1
publicly 1
publishing 1
pul@@ 1
pun@@ 1
pur@@ 1
purchased 1
qualität 1
que 1
queries 1
quest 1
qui@@ 1
quick 1
r.@@ 1
rab@@ 1
racht 1
rad@@ 1
radio 1
raff@@ 1
rag@@ 1
rain 1
rak@@ 1
ran 1
ran@@ 1
rane 1
ranges 1
rates 1
rating 1
ratings 1
rau@@ 1
raum@@ 1
rays 1
rd 1
reach 1
reached 1
reagiert 1
reali@@ 1
reason 1
recei@@ 1
rechnet 1
rechtlich 1
rechtliche 1
rechts@@ 1
reck@@ 1
recogn@@ 1
recognized 1
recommended 1
rede 1
reduce 1
reg@@ 1
regarding 1
regel@@ 1
regelmäßig 1
regional 1
regionalen 1
registri@@ 1
registrieren 1
regul@@ 1
regularly 1
regulations 1
rehabilitation 1
reiben 1
reich@@ 1
reichen 1
reiches 1
reichung 1
reihe 1
reise 1
rek@@ 1
relations 1
relationship 1
relatives 1
relaxed 1
relevante 1
reliable 1
rely 1
remain@@ 1
remarkable 1
remo@@ 1
remote 1
rence 1
renewal 1
renomm@@ 1
renoviert 1
renovierte 1
rentals 1
replace 1
representative 1
representatives 1
represented 1
requested 1
require 1
required 1
res@@ 1
reservations 1
resol@@ 1
resolve 1
resource 1
respectively 1
respek@@ 1
respon@@ 1
response 1
responsibility 1
responsible 1
restau@@ 1
restoration 1
restore 1
restra@@ 1
restricted 1
resu@@ 1
resulting 1
retained 1
reti@@ 1
returns 1
rev@@ 1
reve@@ 1
revi@@ 1
revised 1
richtet 1
richtete 1
rid 1
riding 1
rie@@ 1
riesi@@ 1
rift 1
rin@@ 1
ring@@ 1
rings 1
rise 1
risk 1
risks 1
rit@@ 1
rites 1
road 1
roll@@ 1
roo@@ 1
root 1
ror 1
rought 1
round@@ 1
rounds 1
rous 1
rts 1
ruf 1
rufen 1
ruhe 1
ruhiger 1
ruins 1
rum@@ 1
runde 1
rup@@ 1
ruption 1
räu@@ 1
rü@@ 1
rück@@ 1
rüh@@ 1
s.com 1
sab@@ 1
sacrifice 1
safer 1
sake 1
sammeln 1
satisfaction 1
sav@@ 1
saying 1
says 1
scann@@ 1
scape 1
scenes 1
schaden 1
schafft 1
schaften 1
schalten 1
schaut 1
schedul@@ 1
scheinen 1
scheint 1
scher 1
sches 1
schicken 1
schiede 1
schieden 1
schlage 1
schlagen 1
schlech@@ 1
schlechter 1
schluss 1
schläge 1
schlägt 1
schools 1
schrei@@ 1
schreibt 1
schrieb 1
schrift 1
scht 1
schten 1
schul@@ 1
schw@@ 1
schwer 1
schwer@@ 1
schweren 1
schwieriger 1
schö@@ 1
schönes 1
schönsten 1
schützen 1
schützt 1
scienti@@ 1
scra@@ 1
scrat@@ 1
seaf@@ 1
seal 1
sec@@ 1
secre@@ 1
secret 1
sections 1
seeds 1
seek@@ 1
seem@@ 1
seitens 1
selber 1
selec@@ 1
selected 1
selection 1
sell 1
sels 1
sender 1
senior 1
sense 1
sensitive 1
separate 1
separated 1
ser 1
serious 1
serklärung 1
sern 1
sers 1
servieren 1
sessions 1
sett@@ 1
sh 1
share@@ 1
shares 1
shed 1
sheep 1
sheets 1
shi@@ 1
ships 1
sho@@ 1
shop 1
shot 1
shots 1
showed 1
shut 1
sibility 1
sichere 1
sicherheits@@ 1
sicherstellen 1
sicht 1
sick 1
siedlung 1
sign 1
significant 1
silent 1
sim@@ 1
simpler 1
simultaneously 1
sion@@ 1
sischen 1
sister 1
sit 1
situation 1
sitz 1
sized 1
ski@@ 1
sl@@ 1
sla@@ 1
slight 1
smallest 1
smart 1
snow@@ 1
societies 1
sofa 1
sofort 1
solche 1
solchen 1
solches 1
sold 1
solid 1
solle 1
sometimes 1
sonstige 1
sonstigen 1
sooner 1
sorgt 1
sorry 1
sou@@ 1
sources 1
south 1
soweit 1
sozialen 1
space 1
spam 1
spar@@ 1
spe@@ 1
speci@@ 1
specialities 1
specifically 1
specify 1
spectacular 1
speed 1
spek@@ 1
spend 1
sper@@ 1
speziell 1
speziellen 1
sphere 1
sphäre 1
spielt 1
spielte 1
spiri@@ 1
spiritual 1
spli@@ 1
split 1
spor@@ 1
sport 1
sprachigen 1
spread 1
sprechen 1
spätestens 1
ss 1
ssel@@ 1
sta@@ 1
staatlichen 1
stabili@@ 1
stable 1
stadt 1
stag@@ 1
stage 1
stages 1
stamm@@ 1
stammen 1
standard@@ 1
standardis@@ 1
standing 1
stants 1
star 1
star@@ 1
stark 1
stat@@ 1
stated 1
statement 1
statements 1
station 1
stattdessen 1
statutory 1
staying 1
stead 1
stechn@@ 1
stechnologien 1
stehende 1
stehung 1
steigt 1
stein 1
stell@@ 1
stelle 1
stellte 1
stellungen 1
stellungs@@ 1
stent 1
stenten 1
stet 1
steuert 1
stieg 1
stige 1
stigen 1
stimm@@ 1
stimmen 1
stimmung 1
stischen 1
stly 1
stopping 1
stories 1
story 1
strand 1
strategie 1
strategy 1
strationen 1
straßen 1
streets 1
strengthen 1
stri@@ 1
strich 1
strong 1
strongly 1
struc@@ 1
struck 1
struction 1
structure 1
struk@@ 1
struktur 1
studi@@ 1
stuhl 1
stunden 1
stungen 1
style 1
städ@@ 1
ständigen 1
stör@@ 1
submit 1
substantial 1
success 1
successfully 1
successor 1
such@@ 1
suggest 1
suggestions 1
suite 1
suits 1
sum 1
summary 1
sun 1
super 1
super@@ 1
supp@@ 1
surprised 1
surrounded 1
sus@@ 1
suspended 1
sw@@ 1
swe@@ 1
swiftly 1
sy 1
systematically 1
sätze 1
sätzen 1
sätzlich 1
sü@@ 1
t.@@ 1
ta 1
tab@@ 1
tac@@ 1
tailored 1
tained 1
taining 1
tains 1
tak@@ 1
taking 1
tale 1
talk 1
talked 1
talking 1
tant 1
tar@@ 1
targeted 1
taste 1
tation 1
tations 1
tau@@ 1
taus@@ 1
teachers 1
teaching 1
techni@@ 1
technik 1
techniques 1
technology 1
tee 1
tees 1
teeth 1
teien 1
teil@@ 1
teile 1
teilnehmen 1
teilt 1
teilten 1
teilung 1
teilzunehmen 1
tel 1
telefonisch 1
tend 1
tended 1
tenden 1
tender 1
tene 1
tened 1
teries 1
terion 1
termin@@ 1
terminal 1
tern 1
ters 1
tested 1
theast 1
theore@@ 1
there@@ 1
thoroughly 1
thri@@ 1
throughout 1
thrown 1
ths 1
tic@@ 1
tically 1
tice 1
tiefe 1
tiefen 1
tierten 1
tiful 1
tig@@ 1
tiges 1
tigung 1
timately 1
tionally 1
tisch 1
tische 1
tiv 1
tively 1
tiven 1
tliche 1
tling 1
tnissen 1
tob@@ 1
toff@@ 1
tone 1
topic 1
topics 1
toren 1
torial 1
tory 1
total 1
tou@@ 1
tournaments 1
towards 1
trac@@ 1
track 1
tracks 1
trading 1
traditional 1
traditionellen 1
trag 1
tragenen 1
tran@@ 1
tranqu@@ 1
trans 1
transaction 1
transfer@@ 1
transfers 1
transform 1
transi@@ 1
transition 1
transnational 1
transparent 1
transparenten 1
transpor@@ 1
transport 1
traten 1
trav@@ 1
travellers 1
treas@@ 1
treatments 1
trei@@ 1
treiben 1
trip 1
triple 1
trotz 1
trotzdem 1
trug 1
trä@@ 1
trägen 1
tschaft 1
tseite 1
tube 1
tung@@ 1
tur 1
turen 1
tw@@ 1
twenty 1
twi@@ 1
typ@@ 1
täglichen 1
tätig 1
tätigen 1
tü@@ 1
türkischen 1
u.a. 1
ua 1
uen 1
ulate 1
ulation 1
ulf 1
ull 1
umb@@ 1
umbrel@@ 1
umen@@ 1
umfassen 1
umfassende 1
umfassenden 1
umfasst 1
umgeben 1
umgehen 1
umsetzen 1
un 1
unabhängi@@ 1
unabhängig 1
unabhängiger 1
unbe@@ 1
under@@ 1
understanding 1
undes 1
une 1
uner@@ 1
ung@@ 1
unge 1
ungefähr 1
unglaub@@ 1
ungsh@@ 1
ungsp@@ 1
unification 1
union 1
unique 1
united 1
unseres 1
unt 1
unterliegt 1
unternehmen 1
unterscheidet 1
unterschied@@ 1
unterschiedlich 1
unterschiedlichen 1
unterschiedlicher 1
unterschiedlichsten 1
unterstützte 1
unterstützten 1
upcoming 1
updated 1
updating 1
ups 1
ure 1
urements 1
ures 1
urheber@@ 1
uri@@ 1
urs 1
usage 1
utive 1
utting 1
utz 1
v. 1
v.@@ 1
vac@@ 1
val 1
van@@ 1
var@@ 1
varied 1
veau 1
vegetables 1
vell@@ 1
vens 1
verab@@ 1
veranstaltet 1
verband 1
verbessert 1
verbesserte 1
verbindlichen 1
verbrauch 1
verbreit@@ 1
verbreiten 1
verbunden 1
verbundene 1
verbundenen 1
vereinbaren 1
vereinfacht 1
vereinigung 1
verfasst 1
verfüg@@ 1
vergeben 1
vergleichbar 1
vergleichen 1
vergrößern 1
verhalten 1
verhältnis 1
verkehr@@ 1
verla@@ 1
verlangen 1
verlei@@ 1
verleih 1
verleiht 1
verlieren 1
verliert 1
verloren 1
vernehmen 1
verringern 1
verringert 1
vers@@ 1
versatile 1
verschaffen 1
versehen 1
versichert 1
verspä@@ 1
verstärken 1
verteilen 1
vertrau@@ 1
vertraulich 1
vertreter 1
vertrieben 1
verträ@@ 1
verwalten 1
verwaltung 1
verwand@@ 1
verwen@@ 1
verwendeten 1
verwir@@ 1
verzeichnis 1
veröffentlichen 1
veröffentlichte 1
viel@@ 1
vieler 1
viert 1
viewed 1
villa 1
vine 1
vine@@ 1
virtual 1
virtue 1
vis 1
visi@@ 1
visited 1
visiting 1
vital 1
voices 1
volume 1
vorab 1
voran@@ 1
vorausgesetzt 1
vorbei 1
vorberei@@ 1
vorgestellt 1
vorher 1
vorher@@ 1
vorherigen 1
vorschlägt 1
vorsichtig 1
vorteil@@ 1
vorzubereiten 1
vote 1
vulner@@ 1
völlig 1
wache 1
wachstum 1
wahr 1
wait 1
wake 1
wall 1
wander@@ 1
wards 1
ware@@ 1
wars 1
wart 1
wash@@ 1
wat@@ 1
watch 1
websites 1
wechseln 1
week 1
weekends 1
weeks 1
weg@@ 1
weilen 1
weis 1
weiter@@ 1
weitergegeben 1
weißen 1
welchen 1
welcher 1
wendet 1
weniger 1
werke 1
wert@@ 1
weshalb 1
westen 1
whenever 1
whereby 1
whilst 1
wichtig 1
wichtigen 1
wickelt 1
wid@@ 1
widmen 1
wiederholen 1
wiesen 1
wig 1
will@@ 1
willigung 1
win 1
wind 1
wine 1
winner 1
winners 1
wireless 1
wirtschaftliches 1
wis@@ 1
wn 1
wn@@ 1
wns 1
wodurch 1
wohnern 1
wol@@ 1
woman 1
wonder@@ 1
worried 1
worst 1
wort 1
worth 1
worüber 1
wra@@ 1
wu@@ 1
wuchs 1
wunderschöne 1
ww@@ 1
wägen 1
wählt 1
wärts 1
wü@@ 1
wünsch@@ 1
wünsche 1
würdi@@ 1
yacht 1
yellow 1
yo 1
young 1
young@@ 1
youth 1
yp 1
yp@@ 1
ypen 1
yst@@ 1
z. 1
za 1
zahlreicher 1
zahlt 1
zahlungen 1
ze@@ 1
zed 1
zeh@@ 1
zeichn@@ 1
zeichnet 1
zeit@@ 1
zeiten 1
zel 1
zel@@ 1
zen@@ 1
zent@@ 1
zentral 1
zentren 1
zentrum 1
zerstört 1
zes 1
zeu@@ 1
zeug 1
zicht@@ 1
zieht 1
ziel 1
ziemlich 1
zierte 1
zierung 1
zig 1
zip 1
zog 1
zten 1
zucht 1
zuerst 1
zufrieden@@ 1
zugleich 1
zugän@@ 1
zukommt 1
zuladen 1
zulegen 1
zuletzt 1
zulässi@@ 1
zun@@ 1
zunehmen 1
zungen 1
zus@@ 1
zusammengefasst 1
zusammenhän@@ 1
zusammenzu@@ 1
zusehen 1
zusätzlich 1
zwanzig 1
zwecken 1
zweite 1
zweiter 1
zwin@@ 1
zwischen@@ 1
zz@@ 1
zäh@@ 1
Ära 1
Öffent@@ 1
Öl@@ 1
Überblick 1
Überein@@ 1
Übereinstimmung 1
Übermittlung 1
Überra@@ 1
Übersetzung 1
Übersicht 1
Überzeugung 1
äder 1
ähnliche 1
ähnlichen 1
äl@@ 1
äler 1
älern 1
äm@@ 1
änden 1
ändert 1
änderung 1
äre 1
äter 1
ätze 1
äumen 1
å@@ 1
ía 1
ña 1
ón 1
öffentliche 1
öffentlicher 1
öffnet 1
öh@@ 1
ösen 1
öten 1
überarbeitet 1
übermittelt 1
übernehmen 1
übernimmt 1
übernommen 1
überrascht 1
übersch@@ 1
übersetzen 1
überzeu@@ 1
übrigen 1
ück 1
ümm@@ 1
üstet 1
üt@@ 1
